{
  "version": "1.0",
  "truncation": null,
  "padding": null,
  "added_tokens": [
    {
      "id": 0,
      "content": "[UNK]",
      "single_word": false,
      "lstrip": false,
      "rstrip": false,
      "normalized": false,
      "special": true
    },
    {
      "id": 1,
      "content": "[PAD]",
      "single_word": false,
      "lstrip": false,
      "rstrip": false,
      "normalized": false,
      "special": true
    },
    {
      "id": 2,
      "content": "[CLS]",
      "single_word": false,
      "lstrip": false,
      "rstrip": false,
      "normalized": false,
      "special": true
    },
    {
      "id": 3,
      "content": "[SEP]",
      "single_word": false,
      "lstrip": false,
      "rstrip": false,
      "normalized": false,
      "special": true
    },
    {
      "id": 4,
      "content": "[MASK]",
      "single_word": false,
      "lstrip": false,
      "rstrip": false,
      "normalized": false,
      "special": true
    }
  ],
  "normalizer": null,
  "pre_tokenizer": {
    "type": "ByteLevel",
    "add_prefix_space": true,
    "trim_offsets": true,
    "use_regex": true
  },
  "post_processor": null,
  "decoder": null,
  "model": {
    "type": "BPE",
    "dropout": null,
    "unk_token": null,
    "continuing_subword_prefix": null,
    "end_of_word_suffix": null,
    "fuse_unk": false,
    "byte_fallback": false,
    "ignore_merges": false,
    "vocab": {
      "[UNK]": 0,
      "[PAD]": 1,
      "[CLS]": 2,
      "[SEP]": 3,
      "[MASK]": 4,
      "!": 5,
      "\"": 6,
      "#": 7,
      "$": 8,
      "%": 9,
      "&": 10,
      "'": 11,
      "(": 12,
      ")": 13,
      "*": 14,
      "+": 15,
      ",": 16,
      "-": 17,
      ".": 18,
      "/": 19,
      "0": 20,
      "1": 21,
      "2": 22,
      "3": 23,
      "4": 24,
      "5": 25,
      "6": 26,
      "7": 27,
      "8": 28,
      "9": 29,
      ":": 30,
      ";": 31,
      "<": 32,
      "=": 33,
      ">": 34,
      "?": 35,
      "@": 36,
      "A": 37,
      "B": 38,
      "C": 39,
      "D": 40,
      "E": 41,
      "F": 42,
      "G": 43,
      "H": 44,
      "I": 45,
      "J": 46,
      "K": 47,
      "L": 48,
      "M": 49,
      "N": 50,
      "O": 51,
      "P": 52,
      "Q": 53,
      "R": 54,
      "S": 55,
      "T": 56,
      "U": 57,
      "V": 58,
      "W": 59,
      "X": 60,
      "Y": 61,
      "Z": 62,
      "[": 63,
      "\\": 64,
      "]": 65,
      "^": 66,
      "_": 67,
      "`": 68,
      "a": 69,
      "b": 70,
      "c": 71,
      "d": 72,
      "e": 73,
      "f": 74,
      "g": 75,
      "h": 76,
      "i": 77,
      "j": 78,
      "k": 79,
      "l": 80,
      "m": 81,
      "n": 82,
      "o": 83,
      "p": 84,
      "q": 85,
      "r": 86,
      "s": 87,
      "t": 88,
      "u": 89,
      "v": 90,
      "w": 91,
      "x": 92,
      "y": 93,
      "z": 94,
      "{": 95,
      "|": 96,
      "}": 97,
      "~": 98,
      "¡": 99,
      "¢": 100,
      "£": 101,
      "¤": 102,
      "¥": 103,
      "¦": 104,
      "§": 105,
      "¨": 106,
      "©": 107,
      "ª": 108,
      "«": 109,
      "¬": 110,
      "®": 111,
      "¯": 112,
      "°": 113,
      "±": 114,
      "²": 115,
      "³": 116,
      "´": 117,
      "µ": 118,
      "¶": 119,
      "·": 120,
      "¸": 121,
      "¹": 122,
      "º": 123,
      "»": 124,
      "¼": 125,
      "½": 126,
      "¾": 127,
      "¿": 128,
      "Â": 129,
      "Ã": 130,
      "Ä": 131,
      "Å": 132,
      "Æ": 133,
      "Ç": 134,
      "È": 135,
      "É": 136,
      "Ê": 137,
      "Ë": 138,
      "Ì": 139,
      "Í": 140,
      "Î": 141,
      "Ï": 142,
      "Ô": 143,
      "Õ": 144,
      "Ö": 145,
      "×": 146,
      "Ø": 147,
      "Ù": 148,
      "Ú": 149,
      "Û": 150,
      "Ü": 151,
      "Ý": 152,
      "Þ": 153,
      "à": 154,
      "á": 155,
      "â": 156,
      "ã": 157,
      "ä": 158,
      "å": 159,
      "æ": 160,
      "ç": 161,
      "è": 162,
      "é": 163,
      "ê": 164,
      "ë": 165,
      "ì": 166,
      "í": 167,
      "î": 168,
      "ï": 169,
      "ð": 170,
      "ô": 171,
      "ā": 172,
      "Ă": 173,
      "Ą": 174,
      "Ĉ": 175,
      "ĉ": 176,
      "Ċ": 177,
      "Č": 178,
      "č": 179,
      "đ": 180,
      "Ē": 181,
      "ē": 182,
      "Ĕ": 183,
      "ĕ": 184,
      "Ė": 185,
      "ė": 186,
      "Ę": 187,
      "ę": 188,
      "Ě": 189,
      "ě": 190,
      "Ĝ": 191,
      "ĝ": 192,
      "Ğ": 193,
      "ğ": 194,
      "Ġ": 195,
      "ġ": 196,
      "Ģ": 197,
      "ģ": 198,
      "Ĥ": 199,
      "ĥ": 200,
      "Ħ": 201,
      "ħ": 202,
      "Ĩ": 203,
      "ĩ": 204,
      "Ī": 205,
      "ī": 206,
      "Ĭ": 207,
      "ĭ": 208,
      "Į": 209,
      "į": 210,
      "İ": 211,
      "ı": 212,
      "Ĳ": 213,
      "ĳ": 214,
      "Ĵ": 215,
      "ĵ": 216,
      "Ķ": 217,
      "ķ": 218,
      "ĸ": 219,
      "Ĺ": 220,
      "ĺ": 221,
      "Ļ": 222,
      "ļ": 223,
      "Ľ": 224,
      "ľ": 225,
      "Ŀ": 226,
      "ŀ": 227,
      "Ł": 228,
      "ł": 229,
      "Ń": 230,
      "la": 231,
      "âĢ": 232,
      "sh": 233,
      "ni": 234,
      "âĢĺ": 235,
      "da": 236,
      "ga": 237,
      "Ġb": 238,
      "ri": 239,
      "li": 240,
      "di": 241,
      "Ġt": 242,
      "ch": 243,
      "ma": 244,
      "Ġo": 245,
      "si": 246,
      "ti": 247,
      "lar": 248,
      "ng": 249,
      "Ġk": 250,
      "ra": 251,
      "Ġq": 252,
      "ĠĠ": 253,
      "Ġy": 254,
      "Ġa": 255,
      "Ġbo": 256,
      "ning": 257,
      "gan": 258,
      "ar": 259,
      "Ġh": 260,
      "on": 261,
      "va": 262,
      "Ġi": 263,
      "Ġs": 264,
      "Ġu": 265,
      "ya": 266,
      "gi": 267,
      "ta": 268,
      "lari": 269,
      "mi": 270,
      "Ġe": 271,
      "shi": 272,
      "na": 273,
      "Ġva": 274,
      "chi": 275,
      "ki": 276,
      "Ġbi": 277,
      "sa": 278,
      "Ġm": 279,
      "dan": 280,
      "Ġta": 281,
      "un": 282,
      "or": 283,
      "zi": 284,
      "Ġma": 285,
      "ka": 286,
      "lo": 287,
      "lan": 288,
      "âĢĻ": 289,
      "Ġha": 290,
      "ĠĠĠĠ": 291,
      "Ġqi": 292,
      "ur": 293,
      "..": 294,
      "cha": 295,
      "lik": 296,
      "at": 297,
      "Ġko": 298,
      "âĢĶ": 299,
      "Ġp": 300,
      "Ġx": 301,
      "qi": 302,
      "yo": 303,
      "ro": 304,
      "mo": 305,
      "Ġke": 306,
      "Ġto": 307,
      "ĠB": 308,
      "¿½": 309,
      "ï¿½": 310,
      "yi": 311,
      "Ġsh": 312,
      "Ġyo": 313,
      "Ġqo": 314,
      "Ġ1": 315,
      "Ġd": 316,
      "Ġj": 317,
      "qa": 318,
      "Ġf": 319,
      "lgan": 320,
      "ladi": 321,
      "Ġ(": 322,
      "ĠS": 323,
      "ï¿½ï¿½": 324,
      "er": 325,
      "bi": 326,
      "en": 327,
      "ĠA": 328,
      "Ġmu": 329,
      "Ġqa": 330,
      "vo": 331,
      "st": 332,
      "no": 333,
      "ĠM": 334,
      "čĊ": 335,
      "so": 336,
      "za": 337,
      "lash": 338,
      "Ġtu": 339,
      "uv": 340,
      "Ġso": 341,
      "lib": 342,
      "rish": 343,
      "Ġda": 344,
      "Ġya": 345,
      "dagi": 346,
      "Ġham": 347,
      "Ġbilan": 348,
      "ĠO": 349,
      "ĠâĢĶ": 350,
      "ek": 351,
      "Ġbir": 352,
      "ligi": 353,
      "Ġ2": 354,
      "ĠT": 355,
      "ul": 356,
      "al": 357,
      "ldi": 358,
      "Ġbe": 359,
      "ĠčĊ": 360,
      "Ġbu": 361,
      "Ġg": 362,
      "to": 363,
      "Ġde": 364,
      "vi": 365,
      "larni": 366,
      "lab": 367,
      "ĠK": 368,
      "Ġna": 369,
      "ja": 370,
      "Ġuch": 371,
      "larning": 372,
      "Ġki": 373,
      "Ġsa": 374,
      "Ġsi": 375,
      "lish": 376,
      "ĠU": 377,
      "Ġn": 378,
      "Ġba": 379,
      "Ġish": 380,
      "ĠÂ": 381,
      "siya": 382,
      "Ġyu": 383,
      "Ġho": 384,
      "ĠĠĠĠĠĠĠĠ": 385,
      "Ġte": 386,
      "lma": 387,
      "ba": 388,
      "do": 389,
      "lani": 390,
      "ĠI": 391,
      "Ġchi": 392,
      "re": 393,
      "Ġka": 394,
      "bo": 395,
      "ydi": 396,
      "....": 397,
      "kin": 398,
      "ĠÂ«": 399,
      "il": 400,
      "zo": 401,
      "Ġbosh": 402,
      "ï¿½ï¿½ï¿½ï¿½": 403,
      "et": 404,
      "Ġuchun": 405,
      "ĠY": 406,
      "ha": 407,
      "hi": 408,
      "Ġja": 409,
      "Â»": 410,
      "fa": 411,
      "yat": 412,
      "iz": 413,
      "Ġch": 414,
      "lishi": 415,
      "sha": 416,
      "oy": 417,
      "larini": 418,
      "rib": 419,
      "ĠQ": 420,
      "tish": 421,
      "uvchi": 422,
      "uq": 423,
      "rat": 424,
      "ir": 425,
      "radi": 426,
      "ĠH": 427,
      "Ġmi": 428,
      "ĠâĢ": 429,
      "Ġku": 430,
      "day": 431,
      "ko": 432,
      "Ġti": 433,
      "nadi": 434,
      "Ġsha": 435,
      "tib": 436,
      "qo": 437,
      "ĠBu": 438,
      "um": 439,
      "sida": 440,
      "larga": 441,
      "Ġay": 442,
      "Ġmo": 443,
      "dir": 444,
      "ĠN": 445,
      "miz": 446,
      "ona": 447,
      "sti": 448,
      "gani": 449,
      "ho": 450,
      "yot": 451,
      "Ġfa": 452,
      "us": 453,
      "fi": 454,
      "te": 455,
      "ay": 456,
      "aro": 457,
      "Ġ3": 458,
      "ĠD": 459,
      "Ġra": 460,
      "pi": 461,
      "Ġme": 462,
      "ud": 463,
      "ĠX": 464,
      "mon": 465,
      "Ġin": 466,
      "lat": 467,
      "Ġhi": 468,
      "ĠR": 469,
      "Ġtar": 470,
      "larda": 471,
      "rak": 472,
      "ĠP": 473,
      "Ġxo": 474,
      "le": 475,
      "Ġ4": 476,
      "man": 477,
      "mu": 478,
      "Ġqu": 479,
      "Ġtash": 480,
      "Ġni": 481,
      "Ġtur": 482,
      "Ġga": 483,
      "Ġv": 484,
      "ĠMa": 485,
      "00": 486,
      "Ġor": 487,
      "pa": 488,
      "langan": 489,
      "siz": 490,
      "yu": 491,
      "Ġshu": 492,
      "ĠSh": 493,
      "ĠE": 494,
      "iy": 495,
      "Ġaso": 496,
      "mas": 497,
      "moq": 498,
      "ĠG": 499,
      "ĠV": 500,
      "de": 501,
      "rin": 502,
      "ru": 503,
      "Ġedi": 504,
      "tirish": 505,
      "lim": 506,
      "lanadi": 507,
      "ngi": 508,
      "Ġ-": 509,
      "Ġ5": 510,
      "mat": 511,
      "sta": 512,
      "Ġpo": 513,
      "ĠâĢĵ": 514,
      "ĠF": 515,
      "sini": 516,
      "Ġdo": 517,
      "lsa": 518,
      "Ġno": 519,
      "Ġye": 520,
      "yati": 521,
      "ye": 522,
      "lu": 523,
      "Ġ=": 524,
      "ent": 525,
      "ĠC": 526,
      "Ġ\"": 527,
      "lin": 528,
      "go": 529,
      "Ġdav": 530,
      "es": 531,
      "Ġsu": 532,
      "kat": 533,
      "lardan": 534,
      "Ġxa": 535,
      "tadi": 536,
      "dam": 537,
      "siy": 538,
      "roq": 539,
      "yin": 540,
      "Ġmum": 541,
      "gar": 542,
      "Ġyoki": 543,
      "Ġza": 544,
      "Ġre": 545,
      "Ġmumkin": 546,
      "ĠJ": 547,
      "Ġboshqa": 548,
      "........": 549,
      "rta": 550,
      "Ġun": 551,
      "liq": 552,
      "rsa": 553,
      "Ġuning": 554,
      "po": 555,
      "Ġas": 556,
      "niq": 557,
      "Ġdeb": 558,
      "Ġik": 559,
      "lga": 560,
      "Ġhiso": 561,
      "Ġdi": 562,
      "lariga": 563,
      "Ġji": 564,
      "Ġqay": 565,
      "Ġz": 566,
      "Ġ19": 567,
      "Ġbor": 568,
      "bat": 569,
      "miy": 570,
      "kan": 571,
      "Ġhar": 572,
      "Ġqilish": 573,
      "zb": 574,
      "lanish": 575,
      "larining": 576,
      "Ġpa": 577,
      "unday": 578,
      "siga": 579,
      "fo": 580,
      "viy": 581,
      "lda": 582,
      "su": 583,
      "tgan": 584,
      "rilgan": 585,
      "tida": 586,
      "bu": 587,
      "larida": 588,
      "Ġqara": 589,
      "...": 590,
      "ston": 591,
      "diy": 592,
      "liy": 593,
      "qat": 594,
      "logi": 595,
      "dim": 596,
      ").": 597,
      "Ġega": 598,
      "Ġne": 599,
      "dor": 600,
      "Ġri": 601,
      "Ġvo": 602,
      "niy": 603,
      "ï¿½ï¿½ï¿½ï¿½ï¿½ï¿½ï¿½ï¿½": 604,
      "ji": 605,
      "tir": 606,
      "ĠĠĠĠĠĠĠĠĠĠĠĠĠĠĠĠ": 607,
      "ĠL": 608,
      "an": 609,
      "Ġ7": 610,
      "Ġesa": 611,
      "yotgan": 612,
      "Ġse": 613,
      "lov": 614,
      "ligini": 615,
      "Ġhisob": 616,
      "Ġtush": 617,
      "zim": 618,
      "oyda": 619,
      "Ġbar": 620,
      "ĠĠĠ": 621,
      "ekt": 622,
      "tilgan": 623,
      "Ġqis": 624,
      "Ġbog": 625,
      "dda": 626,
      "am": 627,
      "ĠBo": 628,
      "Ġyi": 629,
      "Ġ.": 630,
      "Ġqan": 631,
      "Ġ6": 632,
      "riy": 633,
      "Ġaniq": 634,
      "in": 635,
      "san": 636,
      "Ġcho": 637,
      "Ġama": 638,
      "son": 639,
      "ĠTo": 640,
      "Ġkerak": 641,
      "rishi": 642,
      "Ġyer": 643,
      "Ġ0": 644,
      "rini": 645,
      "ub": 646,
      "ngiz": 647,
      "Ġolib": 648,
      "Ġkat": 649,
      "masi": 650,
      "Ġoldi": 651,
      "Ġshak": 652,
      "tlar": 653,
      "Ġqat": 654,
      "dek": 655,
      "Ġan": 656,
      "Ġcha": 657,
      "biy": 658,
      "xo": 659,
      "sil": 660,
      "ladigan": 661,
      "Ġfoyda": 662,
      "Ġtashki": 663,
      "Ġhu": 664,
      "eki": 665,
      "lgi": 666,
      "Ġij": 667,
      "oro": 668,
      "Ġhaqi": 669,
      "yon": 670,
      "ku": 671,
      "ĠShu": 672,
      "lanishi": 673,
      "zga": 674,
      "sin": 675,
      "Ġber": 676,
      "rida": 677,
      "rik": 678,
      "tan": 679,
      "ĠTa": 680,
      "uno": 681,
      "Ġqilib": 682,
      "oli": 683,
      "Ġfi": 684,
      "lti": 685,
      "tik": 686,
      "Ġikki": 687,
      "yor": 688,
      "Ġet": 689,
      "Ġoshi": 690,
      "ut": 691,
      "me": 692,
      "tini": 693,
      "âĢĿ": 694,
      "ĠKo": 695,
      "xi": 696,
      "Ġemas": 697,
      "Ġro": 698,
      "Ġkatta": 699,
      "lam": 700,
      "),": 701,
      "laridan": 702,
      "Ġvaq": 703,
      "lay": 704,
      "Ġchiqa": 705,
      "sining": 706,
      "laydi": 707,
      "niya": 708,
      "Ġyil": 709,
      "kazi": 710,
      "qin": 711,
      "moni": 712,
      "Ġsuv": 713,
      "rim": 714,
      "Ġjara": 715,
      "Ġpay": 716,
      "yicha": 717,
      "se": 718,
      "ve": 719,
      "Ġ8": 720,
      "Ġjoy": 721,
      "Ġis": 722,
      "xona": 723,
      "zbeki": 724,
      "pe": 725,
      "Ġlo": 726,
      "ĠNa": 727,
      "Ġsho": 728,
      "Ġekan": 729,
      "Ġman": 730,
      "zm": 731,
      "rar": 732,
      "ĠâĢľ": 733,
      "riga": 734,
      "Ġmah": 735,
      "Ġdara": 736,
      "min": 737,
      "Ġrivo": 738,
      "lini": 739,
      "qar": 740,
      "Ġmav": 741,
      "Ġpro": 742,
      "Ġ9": 743,
      "Ġhara": 744,
      "xshi": 745,
      "Ġuni": 746,
      "Ġqon": 747,
      "may": 748,
      "chilik": 749,
      "ĠZ": 750,
      "Ġim": 751,
      "yil": 752,
      "mida": 753,
      "sim": 754,
      "Ġchiqi": 755,
      "ush": 756,
      "ne": 757,
      "riya": 758,
      "Ġodam": 759,
      "Ġyor": 760,
      "Ġil": 761,
      "nat": 762,
      "riladi": 763,
      "ron": 764,
      "Ġbelgi": 765,
      "unda": 766,
      "xa": 767,
      "ol": 768,
      "usu": 769,
      "tiladi": 770,
      "ste": 771,
      "Ġxal": 772,
      "ndi": 773,
      "ĠQo": 774,
      "Ġob": 775,
      "Ġav": 776,
      "du": 777,
      "zbekiston": 778,
      "Ġolish": 779,
      "lot": 780,
      "Ġorqa": 781,
      "sm": 782,
      "Ġzar": 783,
      "xs": 784,
      "zir": 785,
      "Ġshi": 786,
      "Ġjo": 787,
      "Ġquyi": 788,
      "Ġc": 789,
      "Ġdar": 790,
      "tdi": 791,
      "Ġmaq": 792,
      "Ġrivoj": 793,
      "ran": 794,
      "Ġus": 795,
      "âĢĵ": 796,
      "qti": 797,
      "lingan": 798,
      "Ġ10": 799,
      "tu": 800,
      "lashi": 801,
      "Ġmen": 802,
      "tda": 803,
      "Ġqar": 804,
      "tar": 805,
      "mir": 806,
      "ĠSa": 807,
      "kor": 808,
      "ov": 809,
      "loq": 810,
      "Ġshar": 811,
      "dar": 812,
      "Ġ{": 813,
      "Ġqanday": 814,
      "Ġnar": 815,
      "Ġteng": 816,
      "ssa": 817,
      "llar": 818,
      "jud": 819,
      "tija": 820,
      "Ġishlab": 821,
      "Ġfaoli": 822,
      "Ġ,": 823,
      "Ġar": 824,
      "Ġju": 825,
      "sidagi": 826,
      "Ġtashkil": 827,
      "Ġdavlat": 828,
      "ĠYa": 829,
      "Ġyaxshi": 830,
      "bar": 831,
      "Ġhosil": 832,
      "Ġkon": 833,
      "uncha": 834,
      "Ġqiladi": 835,
      "Ġdaraja": 836,
      "Ġog": 837,
      "har": 838,
      "ksiya": 839,
      "AR": 840,
      "Ġora": 841,
      "Ġaj": 842,
      "Ġkishi": 843,
      "Ġtomoni": 844,
      "Ġbola": 845,
      "Ġer": 846,
      "kr": 847,
      "ech": 848,
      "Ġnima": 849,
      "Ġyana": 850,
      "Ġmuhi": 851,
      "Ġharakat": 852,
      "Ġsifa": 853,
      "Ġgo": 854,
      "Ġr": 855,
      "lanib": 856,
      "nga": 857,
      "Ġel": 858,
      "qiy": 859,
      "Ġmaqsa": 860,
      "sho": 861,
      "Ġ20": 862,
      "Ġyet": 863,
      "Ġkuch": 864,
      "ĠSo": 865,
      "maydi": 866,
      "Ġhamda": 867,
      "ĠHa": 868,
      "lg": 869,
      "ĠMu": 870,
      "lmaydi": 871,
      "Ġgap": 872,
      "nd": 873,
      "lashtirish": 874,
      "Ġxusu": 875,
      "ĠBa": 876,
      "Ġasosiy": 877,
      "bir": 878,
      "Ġholda": 879,
      "Ġkabi": 880,
      "timo": 881,
      "ĠBi": 882,
      "Ġularning": 883,
      "zu": 884,
      "qtiso": 885,
      "Ġeng": 886,
      "lika": 887,
      "Ġular": 888,
      "lida": 889,
      "miyat": 890,
      "tiv": 891,
      "Ġtalab": 892,
      "linadi": 893,
      "din": 894,
      "ĠYo": 895,
      "10": 896,
      "tsi": 897,
      "Ġvazi": 898,
      "pub": 899,
      "Ġetish": 900,
      "im": 901,
      "Ġalo": 902,
      "Ġyuqo": 903,
      "shda": 904,
      "Ġnatija": 905,
      "mla": 906,
      "ter": 907,
      "Ġkeyin": 908,
      "ziga": 909,
      "Ġyangi": 910,
      "sir": 911,
      "Ġshakl": 912,
      "Ġxalq": 913,
      "lama": 914,
      "Ġal": 915,
      "shga": 916,
      "Ġak": 917,
      "Ġquyidagi": 918,
      "Ġuz": 919,
      "Ġmeh": 920,
      "Ġtez": 921,
      "Ġkim": 922,
      "SH": 923,
      "tor": 924,
      "Ġmay": 925,
      "Ġkun": 926,
      "rab": 927,
      "uru": 928,
      "Ġdavo": 929,
      "rinchi": 930,
      "Ġibo": 931,
      "Ġuy": 932,
      "tishi": 933,
      "Ġ12": 934,
      "tiq": 935,
      "Ġxiz": 936,
      "tiga": 937,
      "Ġtari": 938,
      "Ġtay": 939,
      "Ġtop": 940,
      "nida": 941,
      "var": 942,
      "mma": 943,
      "Ġmar": 944,
      "Ġichi": 945,
      "Ġmiq": 946,
      "Ġturli": 947,
      "Ġï": 948,
      "Ġbarcha": 949,
      "Ġmuno": 950,
      "19": 951,
      "lagan": 952,
      "lgani": 953,
      "logik": 954,
      "Ġtuzi": 955,
      "nini": 956,
      "................": 957,
      "hat": 958,
      "Ġkelib": 959,
      "yib": 960,
      "Ġtan": 961,
      "sto": 962,
      "bul": 963,
      "Ġfar": 964,
      "ish": 965,
      "sita": 966,
      "lmagan": 967,
      "lum": 968,
      "tsiya": 969,
      "el": 970,
      "ziq": 971,
      "Ġqoldi": 972,
      "tma": 973,
      "Ġnarsa": 974,
      "gina": 975,
      "publika": 976,
      "xta": 977,
      "Ġnis": 978,
      "lmas": 979,
      "gra": 980,
      "Ġamalga": 981,
      "Ġtayyor": 982,
      "Ġjuda": 983,
      "Ġmasa": 984,
      "Ġvi": 985,
      "logiya": 986,
      "Ġot": 987,
      "Ġkom": 988,
      "Ġyara": 989,
      "zini": 990,
      "tal": 991,
      "unyo": 992,
      "Ġasos": 993,
      "is": 994,
      "foda": 995,
      "nik": 996,
      "Ġtex": 997,
      "don": 998,
      "Ġberadi": 999,
      "Ġxil": 1000,
      "von": 1001,
      "sidan": 1002,
      "gu": 1003,
      "Ġtas": 1004,
      "Ġpar": 1005,
      "mini": 1006,
      "lovchi": 1007,
      "Ġchiq": 1008,
      "Ġorqali": 1009,
      "kinchi": 1010,
      "yoq": 1011,
      "ĠKa": 1012,
      "Ġifoda": 1013,
      "Ġsaba": 1014,
      "Â»,": 1015,
      "yoti": 1016,
      "llik": 1017,
      "tro": 1018,
      "Ġsifatida": 1019,
      "Ġshunday": 1020,
      "Ġtarki": 1021,
      "niga": 1022,
      "Ġbiri": 1023,
      "Ġtomonidan": 1024,
      "lashti": 1025,
      "Ġdegan": 1026,
      "Ġmusta": 1027,
      "he": 1028,
      "Ġzi": 1029,
      "Ġmavjud": 1030,
      "Ġkam": 1031,
      "Ġnuq": 1032,
      "Ġbaja": 1033,
      "moqda": 1034,
      "lumo": 1035,
      "timoiy": 1036,
      "Ġtomon": 1037,
      "Ġxizmat": 1038,
      "Ġajra": 1039,
      "ment": 1040,
      "Ġqil": 1041,
      "proq": 1042,
      "rgan": 1043,
      "Ġiz": 1044,
      "nda": 1045,
      "jat": 1046,
      "rgani": 1047,
      "eo": 1048,
      "layotgan": 1049,
      "Ġyuqori": 1050,
      "tin": 1051,
      "Ġli": 1052,
      "Ġinson": 1053,
      "Ġgi": 1054,
      "Ġmunosa": 1055,
      "ort": 1056,
      "Ġmil": 1057,
      "12": 1058,
      "Ġru": 1059,
      "ke": 1060,
      "Ġumu": 1061,
      "Ġhaqida": 1062,
      "Ġla": 1063,
      "Ġbiz": 1064,
      "liga": 1065,
      "ÂŃ": 1066,
      "Ġtaq": 1067,
      "ĠVa": 1068,
      "Ġhuq": 1069,
      "teri": 1070,
      "xon": 1071,
      "Ġtad": 1072,
      "lashgan": 1073,
      "Ġiborat": 1074,
      "Ġiqtiso": 1075,
      "zar": 1076,
      "ida": 1077,
      "mmo": 1078,
      "tun": 1079,
      "shib": 1080,
      "ĠRes": 1081,
      "Ġada": 1082,
      "Ġasar": 1083,
      "Ġmak": 1084,
      "lek": 1085,
      "Ġsaq": 1086,
      "Ġtopi": 1087,
      "Ġax": 1088,
      "Ġdast": 1089,
      "Ġpe": 1090,
      "zlar": 1091,
      "tob": 1092,
      "Ġberish": 1093,
      "shbu": 1094,
      "ĠBir": 1095,
      "it": 1096,
      "Ġ15": 1097,
      "ĠXo": 1098,
      ".,": 1099,
      "Ġich": 1100,
      "ring": 1101,
      "ver": 1102,
      "Ġunga": 1103,
      "Ġqiy": 1104,
      "yan": 1105,
      "zbek": 1106,
      "Ġeshi": 1107,
      "val": 1108,
      "zor": 1109,
      "ĠDa": 1110,
      "Ġtabi": 1111,
      "tkazi": 1112,
      "Ġyozi": 1113,
      "ĠTe": 1114,
      "Ġnisba": 1115,
      "ĠAgar": 1116,
      "ssi": 1117,
      "Ġhech": 1118,
      "20": 1119,
      "Ġjarayo": 1120,
      "Ġsabab": 1121,
      "Ġusul": 1122,
      "undan": 1123,
      "lati": 1124,
      "mati": 1125,
      "Ġochi": 1126,
      "Ġholat": 1127,
      "fat": 1128,
      "Ġsar": 1129,
      "__": 1130,
      "Ġtil": 1131,
      "tga": 1132,
      "Ġhay": 1133,
      "Ġyosh": 1134,
      "riq": 1135,
      "Ê»": 1136,
      "sp": 1137,
      "adi": 1138,
      "ĠMe": 1139,
      "Ġfaoliyati": 1140,
      "Ġqildi": 1141,
      "tuvchi": 1142,
      "Ġsoha": 1143,
      "Ġkor": 1144,
      "ĠKe": 1145,
      "mol": 1146,
      "Ġnuqta": 1147,
      "Ġvazifa": 1148,
      "vob": 1149,
      "kam": 1150,
      "jo": 1151,
      "nish": 1152,
      "Ġfo": 1153,
      "Ġxususiya": 1154,
      "ts": 1155,
      "Ġyoz": 1156,
      "oq": 1157,
      "Ġtor": 1158,
      "ĠCh": 1159,
      "jon": 1160,
      "Ġmahsu": 1161,
      "rasm": 1162,
      "Ġusti": 1163,
      "lantirish": 1164,
      "Ġbirinchi": 1165,
      "Ġyig": 1166,
      "lom": 1167,
      "magan": 1168,
      "Ġetadi": 1169,
      "Ġbos": 1170,
      "Ġmamla": 1171,
      "Ġijtimoiy": 1172,
      "ddiy": 1173,
      "Ġshart": 1174,
      "ĠRespublika": 1175,
      "ĠQa": 1176,
      "Ġmuhim": 1177,
      "Ġfaqat": 1178,
      "IN": 1179,
      "Ġqilgan": 1180,
      "Ġoi": 1181,
      "kur": 1182,
      "tiro": 1183,
      "lak": 1184,
      "niyat": 1185,
      "Ġfor": 1186,
      "Ġmasala": 1187,
      "Ġyuza": 1188,
      "Ġdunyo": 1189,
      "ĠRa": 1190,
      "Ġqayta": 1191,
      "biya": 1192,
      "zat": 1193,
      "Ġ18": 1194,
      "Ġle": 1195,
      "Ġche": 1196,
      "quv": 1197,
      "mak": 1198,
      "Ġ200": 1199,
      "ĠDe": 1200,
      "Ġtara": 1201,
      "niye": 1202,
      "zgar": 1203,
      "Ġlozim": 1204,
      "tki": 1205,
      "Ġoqi": 1206,
      "liklar": 1207,
      "Ġmash": 1208,
      "Ġ11": 1209,
      "likka": 1210,
      "ĠLe": 1211,
      "Ġyaqin": 1212,
      "vat": 1213,
      "hli": 1214,
      "Ġijo": 1215,
      "ral": 1216,
      "Ġfun": 1217,
      "zoq": 1218,
      "tab": 1219,
      "Ġkelgan": 1220,
      "Ġhisoblanadi": 1221,
      "rilishi": 1222,
      "Ġmaj": 1223,
      "ĠJa": 1224,
      "Ġbur": 1225,
      "shk": 1226,
      "IY": 1227,
      "dilar": 1228,
      "Ġguru": 1229,
      "mish": 1230,
      "Ġkeladi": 1231,
      "Ġshaxs": 1232,
      "Ġyur": 1233,
      "Ġxos": 1234,
      "Ġvosita": 1235,
      "chik": 1236,
      "Ġkelti": 1237,
      "Ġhamma": 1238,
      "ĠMen": 1239,
      "Ġasr": 1240,
      "Ġtizi": 1241,
      "Ġ14": 1242,
      "shini": 1243,
      "mil": 1244,
      "Ġelekt": 1245,
      "Ġnisbatan": 1246,
      "Ġqabul": 1247,
      "ski": 1248,
      "Ġkeng": 1249,
      "Ġeti": 1250,
      "nim": 1251,
      "tlari": 1252,
      "lmay": 1253,
      "liya": 1254,
      "Ġqarshi": 1255,
      "hida": 1256,
      "Ġbal": 1257,
      "Ġek": 1258,
      "ton": 1259,
      "likni": 1260,
      "ĠSha": 1261,
      "vor": 1262,
      "Ġpi": 1263,
      "likda": 1264,
      "Ġmunosabat": 1265,
      "Ġsharo": 1266,
      "Ġfikr": 1267,
      "Ġbirga": 1268,
      "zlari": 1269,
      "lang": 1270,
      "Ġqolgan": 1271,
      "sib": 1272,
      "Ġtug": 1273,
      "unki": 1274,
      "lig": 1275,
      "Ġ13": 1276,
      "ss": 1277,
      "lya": 1278,
      "ĠYe": 1279,
      "Ġasosida": 1280,
      "Ġqarab": 1281,
      "ï¿½ï¿½ï¿½ï¿½ï¿½ï¿½ï¿½ï¿½ï¿½ï¿½ï¿½ï¿½ï¿½ï¿½ï¿½ï¿½": 1282,
      "Ġikkinchi": 1283,
      "Ġsin": 1284,
      "Ġvaqt": 1285,
      "unga": 1286,
      "Ġumumiy": 1287,
      "met": 1288,
      "Ġimko": 1289,
      "rov": 1290,
      "ksi": 1291,
      "Ġjarayon": 1292,
      "Ġtarkibi": 1293,
      "Ġmodda": 1294,
      "Ġshe": 1295,
      "qon": 1296,
      "os": 1297,
      "ĠHo": 1298,
      "Ġdavr": 1299,
      "Ġqismi": 1300,
      "kim": 1301,
      "Ġkasa": 1302,
      "Ġqur": 1303,
      "AN": 1304,
      "Ġolgan": 1305,
      "Ġota": 1306,
      "shim": 1307,
      "rt": 1308,
      "Ġst": 1309,
      "chan": 1310,
      "Ġyasha": 1311,
      "Ġyerda": 1312,
      "malar": 1313,
      "yish": 1314,
      "Ġbutun": 1315,
      "Ġularni": 1316,
      "Ġpre": 1317,
      "kaz": 1318,
      "Ġen": 1319,
      "zining": 1320,
      "xsha": 1321,
      "Ġzo": 1322,
      "uvi": 1323,
      "dedi": 1324,
      "pti": 1325,
      "15": 1326,
      "Ġtashqa": 1327,
      "kka": 1328,
      "rati": 1329,
      "dosh": 1330,
      "Ġmamlakat": 1331,
      "LAR": 1332,
      "quvchi": 1333,
      "Ġeri": 1334,
      "enti": 1335,
      "salan": 1336,
      "uz": 1337,
      "tirib": 1338,
      "llari": 1339,
      "Ġaha": 1340,
      "ug": 1341,
      "bur": 1342,
      "zaro": 1343,
      "kli": 1344,
      "Ġmaz": 1345,
      "Ġyuz": 1346,
      "AT": 1347,
      "Ġbaho": 1348,
      "rasi": 1349,
      "Ġzarur": 1350,
      "Ġmaqsad": 1351,
      "LI": 1352,
      "Ġjavob": 1353,
      "Ġfoydalanish": 1354,
      "Ġqilingan": 1355,
      "ĠĠĠčĊ": 1356,
      "Ġhuj": 1357,
      "ĠIn": 1358,
      "Ġdoi": 1359,
      "Ġilmiy": 1360,
      "rash": 1361,
      "mar": 1362,
      "Ġof": 1363,
      "hon": 1364,
      "dro": 1365,
      "âĢľ": 1366,
      "Ġdan": 1367,
      "ĠUning": 1368,
      "zda": 1369,
      "shiga": 1370,
      "ea": 1371,
      "rdi": 1372,
      "11": 1373,
      "Ġkiri": 1374,
      "Ġata": 1375,
      "Ġmada": 1376,
      "ridan": 1377,
      "ĠShuning": 1378,
      "Ġum": 1379,
      "Ġpaydo": 1380,
      "ĠTur": 1381,
      "ligiga": 1382,
      "Ġyuk": 1383,
      "Ġsiyo": 1384,
      "qan": 1385,
      "Ġ199": 1386,
      "Ġthe": 1387,
      "xti": 1388,
      "rga": 1389,
      "Ġhozir": 1390,
      "Ġmuvo": 1391,
      ".)": 1392,
      "Ġnaza": 1393,
      "shkent": 1394,
      "oya": 1395,
      "che": 1396,
      "tak": 1397,
      "Ġul": 1398,
      "Ġkel": 1399,
      "Ġmiqdo": 1400,
      "\",": 1401,
      "Ġol": 1402,
      "Ġnom": 1403,
      "Ġshahar": 1404,
      "Ġkeldi": 1405,
      "Ġmahsulot": 1406,
      "landi": 1407,
      "ĠAy": 1408,
      "Ġoshirish": 1409,
      "ĠÃ": 1410,
      "Ġ16": 1411,
      "Ġmos": 1412,
      "Ġturgan": 1413,
      "Ġ)": 1414,
      "fe": 1415,
      "Ġyon": 1416,
      "Ġmehnat": 1417,
      "lug": 1418,
      "gacha": 1419,
      "Ġqish": 1420,
      "Ġnecha": 1421,
      "Ġming": 1422,
      "lon": 1423,
      "uk": 1424,
      "qarish": 1425,
      "Ġana": 1426,
      "rg": 1427,
      "Ġeh": 1428,
      "zon": 1429,
      "Ġshuning": 1430,
      "ches": 1431,
      "qib": 1432,
      "Ġturib": 1433,
      "Ġhayot": 1434,
      "Ġw": 1435,
      "Ġsp": 1436,
      "Ġsen": 1437,
      "Ġl": 1438,
      "boro": 1439,
      "Ġtarbiya": 1440,
      "18": 1441,
      "--": 1442,
      "Ġbunday": 1443,
      "Ġuru": 1444,
      "lashga": 1445,
      "ĠUlar": 1446,
      "uro": 1447,
      "ĠHar": 1448,
      "mal": 1449,
      "tel": 1450,
      "Ġadabi": 1451,
      "Ġbuy": 1452,
      "ĠNi": 1453,
      "Ġxat": 1454,
      "dik": 1455,
      "Ġalohida": 1456,
      "Ġoq": 1457,
      "ĠLekin": 1458,
      "ĠĠĠĠĠĠĠĠĠĠĠĠĠĠĠĠĠĠĠĠĠĠĠĠĠĠĠĠĠĠĠĠ": 1459,
      "ling": 1460,
      "qil": 1461,
      "bor": 1462,
      "siq": 1463,
      "lcha": 1464,
      "Ġ17": 1465,
      "ratsiya": 1466,
      "mni": 1467,
      "Ġkorxona": 1468,
      "Ġketdi": 1469,
      "ini": 1470,
      "chak": 1471,
      "Ġara": 1472,
      "Ġmarta": 1473,
      "ON": 1474,
      "ĠSi": 1475,
      "Ġyuri": 1476,
      "Ġtek": 1477,
      "be": 1478,
      "Ġoy": 1479,
      "dur": 1480,
      "giya": 1481,
      "Ġsiste": 1482,
      "zida": 1483,
      "xt": 1484,
      "ĠMasalan": 1485,
      "tta": 1486,
      "she": 1487,
      "Ġuzoq": 1488,
      "ĠAb": 1489,
      "qqi": 1490,
      "Ġ:": 1491,
      "qish": 1492,
      "qu": 1493,
      "Ġpast": 1494,
      "ĠĠĠĠĠ": 1495,
      "14": 1496,
      "mad": 1497,
      "CH": 1498,
      "shadi": 1499,
      "Ġyorda": 1500,
      "Ġfan": 1501,
      "Ġmateri": 1502,
      "yar": 1503,
      "kki": 1504,
      "Ġqonun": 1505,
      "noma": 1506,
      "holi": 1507,
      "Ġsan": 1508,
      "Ġchiqib": 1509,
      "Ġqizi": 1510,
      "Ġfunksiya": 1511,
      "je": 1512,
      "om": 1513,
      "sk": 1514,
      "yli": 1515,
      "Ġoladi": 1516,
      "Ġbalki": 1517,
      "chiqarish": 1518,
      "22": 1519,
      "kasi": 1520,
      "loh": 1521,
      "sion": 1522,
      "Ġmas": 1523,
      "chilar": 1524,
      "Ġsov": 1525,
      "nib": 1526,
      "nov": 1527,
      "Ġatro": 1528,
      "Ġhaj": 1529,
      "Ġkar": 1530,
      "Ġorgani": 1531,
      "kis": 1532,
      "Ġxi": 1533,
      "lumot": 1534,
      "Ġxu": 1535,
      "Ġquri": 1536,
      "Ġguruh": 1537,
      "xsus": 1538,
      "log": 1539,
      "Ġberilgan": 1540,
      "ĠSho": 1541,
      "lana": 1542,
      "ĠBe": 1543,
      "ĠBunday": 1544,
      "Ġbosqi": 1545,
      "Ġres": 1546,
      "Ġtashqari": 1547,
      "Ġfarq": 1548,
      "sak": 1549,
      "Ġele": 1550,
      "land": 1551,
      "Ġtartib": 1552,
      "ĠMar": 1553,
      "Ġang": 1554,
      "zg": 1555,
      "rali": 1556,
      "fiq": 1557,
      "Ġolingan": 1558,
      "Ġiqtisodiy": 1559,
      "stik": 1560,
      "mor": 1561,
      "riyat": 1562,
      "chin": 1563,
      "Ġ25": 1564,
      "Ġtexno": 1565,
      "likning": 1566,
      "ati": 1567,
      "Ġkuza": 1568,
      "Ġravi": 1569,
      "Ġkomp": 1570,
      "lardi": 1571,
      "disa": 1572,
      "Ġtog": 1573,
      "mov": 1574,
      "vir": 1575,
      "Ġchiziq": 1576,
      "Ġmaqsadi": 1577,
      "kon": 1578,
      "rif": 1579,
      "Ġsal": 1580,
      "ĠAl": 1581,
      "lami": 1582,
      "Ġosti": 1583,
      "Ġnav": 1584,
      "risida": 1585,
      "Ġter": 1586,
      "Ġaniqlash": 1587,
      "ĠïĢ": 1588,
      "Ġbilim": 1589,
      "Ġjihat": 1590,
      "ge": 1591,
      "rining": 1592,
      "ĠÂ»": 1593,
      "Ġhud": 1594,
      "ganda": 1595,
      "yev": 1596,
      "miyati": 1597,
      "Ġqator": 1598,
      "ura": 1599,
      "shin": 1600,
      "Ġsama": 1601,
      "shni": 1602,
      "Ġrea": 1603,
      "Ġhol": 1604,
      "fiy": 1605,
      "tibor": 1606,
      "moya": 1607,
      "yra": 1608,
      "Ġona": 1609,
      "br": 1610,
      "Ġyog": 1611,
      "17": 1612,
      "Ġtarix": 1613,
      "ĠAmmo": 1614,
      "borot": 1615,
      "Ġbora": 1616,
      "ammo": 1617,
      "Ġqancha": 1618,
      "uqur": 1619,
      "Ġtizimi": 1620,
      "ngli": 1621,
      "yol": 1622,
      "Ġtav": 1623,
      "Ġetilgan": 1624,
      "Ġkas": 1625,
      "Ġï¿½ï¿½ï¿½ï¿½": 1626,
      "Ġyordamida": 1627,
      "Ġfaoliyat": 1628,
      "Ġnatijasida": 1629,
      "lyu": 1630,
      "for": 1631,
      "Ġuchra": 1632,
      "shli": 1633,
      "ĠĠĠĠĠĠĠ": 1634,
      "mga": 1635,
      "Ġtushuncha": 1636,
      "sat": 1637,
      "lishini": 1638,
      "sya": 1639,
      "Ġquv": 1640,
      "bot": 1641,
      "Ġpul": 1642,
      "Ġlekin": 1643,
      "Ġkichik": 1644,
      "Ġtahli": 1645,
      "Ġchek": 1646,
      "dlar": 1647,
      "noy": 1648,
      "naviy": 1649,
      "Ġrah": 1650,
      "tov": 1651,
      "dago": 1652,
      "Ġmilliy": 1653,
      "Ġkis": 1654,
      "13": 1655,
      "riba": 1656,
      "Ġ22": 1657,
      "Ġnomi": 1658,
      "Ġqila": 1659,
      "ze": 1660,
      "tidan": 1661,
      "kar": 1662,
      "Ġtadqi": 1663,
      "Ġjamiyat": 1664,
      "Ġmaxsus": 1665,
      "siyo": 1666,
      "Ġqilinadi": 1667,
      "shina": 1668,
      "nal": 1669,
      "Ġhal": 1670,
      "Ġichki": 1671,
      "Ġushbu": 1672,
      "Ġravishda": 1673,
      "zma": 1674,
      "Ġturadi": 1675,
      "ngil": 1676,
      "Ġchiqarish": 1677,
      "yiladi": 1678,
      "vu": 1679,
      "Ġishla": 1680,
      "grafi": 1681,
      "qot": 1682,
      "Ġberi": 1683,
      "Ġmudda": 1684,
      "Ġasosan": 1685,
      "Ġhavo": 1686,
      "Ġyordam": 1687,
      "Ġ/": 1688,
      "ĠFa": 1689,
      "Ġaloqa": 1690,
      "jriba": 1691,
      "Ġtegi": 1692,
      "Ġboy": 1693,
      "ĠRespublikasi": 1694,
      "Ġendi": 1695,
      ");": 1696,
      "nika": 1697,
      "dr": 1698,
      "moqchi": 1699,
      "Ġgul": 1700,
      "Ġson": 1701,
      "Ġchuqur": 1702,
      "ĠIs": 1703,
      "Ġkitob": 1704,
      "Ġmuvofiq": 1705,
      "tur": 1706,
      "nan": 1707,
      "Ġishlabchiqarish": 1708,
      "kro": 1709,
      "Ġâ": 1710,
      "yet": 1711,
      "llani": 1712,
      "Ġust": 1713,
      "Ġsavo": 1714,
      "Ġhodisa": 1715,
      "ĠQu": 1716,
      "Ġtarqa": 1717,
      "ting": 1718,
      "Ġnamo": 1719,
      "Ġvoq": 1720,
      "Ġhuqu": 1721,
      "ĠMo": 1722,
      "Ġetgan": 1723,
      "Ġtekshi": 1724,
      "ene": 1725,
      "Ġhujjat": 1726,
      "Ġyigi": 1727,
      "Ġsoni": 1728,
      "Ġqism": 1729,
      "Ġancha": 1730,
      "bek": 1731,
      "gich": 1732,
      "ĠBiz": 1733,
      "ĠĠĠĠĠĠ": 1734,
      "Ġtizim": 1735,
      "lmasa": 1736,
      "Ġmuammo": 1737,
      "Ġusu": 1738,
      "16": 1739,
      "Ġosh": 1740,
      "ft": 1741,
      "Ġundan": 1742,
      "Ġmaterial": 1743,
      "ff": 1744,
      "Ġ30": 1745,
      "Â».": 1746,
      "Ġmanba": 1747,
      "lishiga": 1748,
      "ora": 1749,
      "Ġï¿½ï¿½ï¿½ï¿½ï¿½ï¿½ï¿½ï¿½": 1750,
      "Ġaholi": 1751,
      "Ġqal": 1752,
      "zal": 1753,
      "ĠPa": 1754,
      "umla": 1755,
      "uni": 1756,
      "Ġsiz": 1757,
      "Ġtushun": 1758,
      "lashib": 1759,
      "rsatki": 1760,
      "ganini": 1761,
      "los": 1762,
      "lota": 1763,
      "ĠMi": 1764,
      "chib": 1765,
      "shida": 1766,
      "uch": 1767,
      "ĠToshkent": 1768,
      "tining": 1769,
      "Ġmeto": 1770,
      "miya": 1771,
      "Ġsta": 1772,
      "25": 1773,
      "Ġgra": 1774,
      "Ġov": 1775,
      "ori": 1776,
      "Ġbildi": 1777,
      "Ġjon": 1778,
      "madi": 1779,
      "Ġjoylashgan": 1780,
      "ĠNe": 1781,
      "Ġishon": 1782,
      "Ġelement": 1783,
      "ere": 1784,
      "Ġaka": 1785,
      "Ġjamo": 1786,
      "Ġuzun": 1787,
      "Ġalma": 1788,
      "Ġhuquq": 1789,
      "TI": 1790,
      "Ġnafa": 1791,
      "ali": 1792,
      "qituvchi": 1793,
      "klar": 1794,
      "Ġqora": 1795,
      "Ġyubo": 1796,
      "yek": 1797,
      "Ġoda": 1798,
      "ylab": 1799,
      "dul": 1800,
      "ĠBosh": 1801,
      "Ġqiz": 1802,
      "ĠPo": 1803,
      "rna": 1804,
      "lsin": 1805,
      "Ġtili": 1806,
      "Ġoila": 1807,
      "kov": 1808,
      "uddi": 1809,
      "Ġnazo": 1810,
      "Ġqishloq": 1811,
      "yuq": 1812,
      "Ġketgan": 1813,
      "par": 1814,
      "Ġnazar": 1815,
      "far": 1816,
      "Ġmin": 1817,
      "nogo": 1818,
      "Ġboshladi": 1819,
      "vlat": 1820,
      "Ġxarak": 1821,
      "udi": 1822,
      "yekt": 1823,
      "zib": 1824,
      "yadi": 1825,
      "Ġ100": 1826,
      "men": 1827,
      "Ġahamiyat": 1828,
      "Ġaf": 1829,
      "Ġishtiro": 1830,
      "Ġkuni": 1831,
      "uvchan": 1832,
      "lashda": 1833,
      "Ġvu": 1834,
      "Ġmul": 1835,
      "Ġdavom": 1836,
      "jalik": 1837,
      "shish": 1838,
      "Ġorasida": 1839,
      "ardi": 1840,
      "Ġket": 1841,
      "Ġtuproq": 1842,
      "Ġmat": 1843,
      "mog": 1844,
      "xir": 1845,
      "kab": 1846,
      "Ġshuningdek": 1847,
      "DA": 1848,
      "Ġpri": 1849,
      "30": 1850,
      "Ġes": 1851,
      "90": 1852,
      "lit": 1853,
      "Ġayrim": 1854,
      "km": 1855,
      "tiradi": 1856,
      "vdo": 1857,
      "rni": 1858,
      "Ġener": 1859,
      "Ġortiq": 1860,
      "deb": 1861,
      "ĠKi": 1862,
      "Ġtashqi": 1863,
      "Ġkul": 1864,
      "Ġovo": 1865,
      "tirgan": 1866,
      "lis": 1867,
      "Ġah": 1868,
      "Ġbitta": 1869,
      "Ġpod": 1870,
      "uqaro": 1871,
      "Ġkiradi": 1872,
      "Ġmaktab": 1873,
      "yingi": 1874,
      "niyati": 1875,
      "zan": 1876,
      "Ġqop": 1877,
      "ot": 1878,
      "nx": 1879,
      "larimiz": 1880,
      "tiruvchi": 1881,
      "Ġichida": 1882,
      "SI": 1883,
      "Ġtajriba": 1884,
      "Ġaxborot": 1885,
      "hkam": 1886,
      "Ġ24": 1887,
      "Ġqobi": 1888,
      "Ġchega": 1889,
      "ĠNo": 1890,
      "Ġap": 1891,
      "Ġ+": 1892,
      "50": 1893,
      "sam": 1894,
      "Ma": 1895,
      "Ġning": 1896,
      "ĠIsh": 1897,
      "Ġbino": 1898,
      "zgarish": 1899,
      "Ġunda": 1900,
      "Ġasa": 1901,
      "limi": 1902,
      "simon": 1903,
      "Ġaa": 1904,
      "mani": 1905,
      "dagogi": 1906,
      "âĢĶâĢĶ": 1907,
      "lka": 1908,
      "hamma": 1909,
      "Ġbaland": 1910,
      "hra": 1911,
      "Ġmexa": 1912,
      "ono": 1913,
      "simlik": 1914,
      "Ġbila": 1915,
      "Ġos": 1916,
      "Ġmaydon": 1917,
      "shimcha": 1918,
      "Ġchiqadi": 1919,
      "ĠSe": 1920,
      "urs": 1921,
      "Ġhayoti": 1922,
      "Ġqaysi": 1923,
      "tika": 1924,
      "Ġxav": 1925,
      "II": 1926,
      "shlar": 1927,
      "rardi": 1928,
      "Ġbiror": 1929,
      "mda": 1930,
      "____": 1931,
      "kiy": 1932,
      "Ġhimoya": 1933,
      "Ġorgan": 1934,
      "lanuvchi": 1935,
      "Ġbug": 1936,
      "diq": 1937,
      "Ġsharoi": 1938,
      "Ġtabiiy": 1939,
      "niqsa": 1940,
      "muni": 1941,
      "Ġturi": 1942,
      "ich": 1943,
      "Ġkasallik": 1944,
      "voiy": 1945,
      "Ġreja": 1946,
      "kati": 1947,
      "yn": 1948,
      "rishga": 1949,
      "Ġissiq": 1950,
      "Ġtarixi": 1951,
      "dov": 1952,
      "Ġiste": 1953,
      "Ġboshqar": 1954,
      "Ġolim": 1955,
      "ĠShunday": 1956,
      "Ġxona": 1957,
      "Ġsir": 1958,
      "Ġgapi": 1959,
      "lag": 1960,
      "lganda": 1961,
      "ĠBunda": 1962,
      "Ġdedi": 1963,
      "ĠHam": 1964,
      "yuk": 1965,
      "ĠUshbu": 1966,
      "pro": 1967,
      "rid": 1968,
      "nalish": 1969,
      "Ġsay": 1970,
      "yilda": 1971,
      "Ġkirib": 1972,
      "Ġrivojlanishi": 1973,
      "Ġdarajada": 1974,
      "mizda": 1975,
      "Ġtufa": 1976,
      "sol": 1977,
      "Ġsifat": 1978,
      "Ġharo": 1979,
      "Ġhisobi": 1980,
      "bra": 1981,
      "zil": 1982,
      "Ġchiqish": 1983,
      "Ġmiqdori": 1984,
      "Ġaks": 1985,
      "Ġshah": 1986,
      "Ġmashina": 1987,
      "yna": 1988,
      "Ġqattiq": 1989,
      "Ġmustaqil": 1990,
      "mik": 1991,
      "Ġtekis": 1992,
      "lardagi": 1993,
      "shuno": 1994,
      "ligida": 1995,
      "ven": 1996,
      "Ġshoir": 1997,
      "rakkab": 1998,
      "Ġolinadi": 1999,
      "Ġtamo": 2000,
      "Ġyechi": 2001,
      "Ġoldin": 2002,
      "Ġberdi": 2003,
      "Ġmustahkam": 2004,
      "Ġtuga": 2005,
      "Ġbergan": 2006,
      "Ġtufayli": 2007,
      "Ġkelishi": 2008,
      "ï¿½ï¿½ï¿½": 2009,
      "mur": 2010,
      "ygan": 2011,
      "Ġdavomida": 2012,
      "Ġvilo": 2013,
      "Ġmahal": 2014,
      "Ġtenglama": 2015,
      "Ġqoida": 2016,
      "ap": 2017,
      "Ġbirik": 2018,
      "og": 2019,
      "rsatkich": 2020,
      "ziya": 2021,
      "Ġjihatdan": 2022,
      "Ġtexnologiya": 2023,
      "sixo": 2024,
      "zing": 2025,
      "siyasi": 2026,
      "Ġjin": 2027,
      "Ġtasvir": 2028,
      "Ġnor": 2029,
      "noat": 2030,
      "Ġbosqich": 2031,
      "Ġboradi": 2032,
      "Ġaq": 2033,
      "Ġtik": 2034,
      "Ġkislota": 2035,
      "shunos": 2036,
      "Ġsur": 2037,
      "Ġfaol": 2038,
      "bob": 2039,
      "Ġzarar": 2040,
      "yim": 2041,
      "Ġammo": 2042,
      "Ġhukm": 2043,
      "hiyati": 2044,
      ".:": 2045,
      "lalar": 2046,
      "Ġbozor": 2047,
      "sul": 2048,
      "Ġegal": 2049,
      "Ġtushi": 2050,
      "Ġmenga": 2051,
      "Ġetib": 2052,
      "Ġchiqar": 2053,
      "choq": 2054,
      "ensi": 2055,
      "Ġchiqqan": 2056,
      "Ġban": 2057,
      "OR": 2058,
      "tli": 2059,
      "rsatish": 2060,
      "arli": 2061,
      "ĠQi": 2062,
      "ĠChi": 2063,
      "Ġtahlil": 2064,
      "tiyo": 2065,
      "Ġizo": 2066,
      "Ġon": 2067,
      "ĠZa": 2068,
      "Ġsavdo": 2069,
      "Ġhaqidagi": 2070,
      "Ġsil": 2071,
      "uri": 2072,
      "Ġoch": 2073,
      "Ġfoydalani": 2074,
      "Ġbag": 2075,
      "40": 2076,
      "Ġkecha": 2077,
      "rganish": 2078,
      "Ġagar": 2079,
      "Ġhisobga": 2080,
      "Ġqaror": 2081,
      "tira": 2082,
      "iga": 2083,
      "ragi": 2084,
      "tning": 2085,
      "sav": 2086,
      "Ġtegishli": 2087,
      "Ġbuzi": 2088,
      "Ġgeo": 2089,
      "hammad": 2090,
      "Ġmuta": 2091,
      "Ġborib": 2092,
      "Ġerkin": 2093,
      "Ġtopshi": 2094,
      "moniy": 2095,
      "ĠNavoiy": 2096,
      "................................": 2097,
      "Ġjarayonida": 2098,
      "diiy": 2099,
      "Ġmiqdor": 2100,
      "Ġadabiyot": 2101,
      "Ġchunki": 2102,
      "Ġhaq": 2103,
      "ĠMir": 2104,
      "Ġvoqea": 2105,
      "zod": 2106,
      "Ġat": 2107,
      "rajat": 2108,
      "Ġqiluvchi": 2109,
      "Ġtadbir": 2110,
      "bon": 2111,
      "hor": 2112,
      "bn": 2113,
      "Ġkenga": 2114,
      "Ġqilin": 2115,
      "batta": 2116,
      "Ġsub": 2117,
      "Ġop": 2118,
      "lmadi": 2119,
      "len": 2120,
      "Ġzamon": 2121,
      "Ġchegara": 2122,
      "gona": 2123,
      "jayra": 2124,
      "ĠAn": 2125,
      "Ġamal": 2126,
      "rma": 2127,
      "Ġvujud": 2128,
      "tasi": 2129,
      "Ġjan": 2130,
      "tsion": 2131,
      "ĠâĢĻ": 2132,
      "Ġtovar": 2133,
      "Ġrivojlantirish": 2134,
      "ĠOsiyo": 2135,
      "ruk": 2136,
      "Ġmarkazi": 2137,
      "Ġgaz": 2138,
      "Ġhat": 2139,
      "matik": 2140,
      "xe": 2141,
      "Ġnazorat": 2142,
      "Â«": 2143,
      "ligining": 2144,
      "Ġjarayoni": 2145,
      "ĠHozir": 2146,
      "ĠChunki": 2147,
      "yg": 2148,
      "Ġras": 2149,
      "Ġ27": 2150,
      "Ġmurakkab": 2151,
      "Ġxavf": 2152,
      "Ġloyi": 2153,
      "rit": 2154,
      "Ġ50": 2155,
      "Ġ40": 2156,
      "Ġyuzaga": 2157,
      "Ġfe": 2158,
      "Ġsog": 2159,
      "Ġtran": 2160,
      "rsatadi": 2161,
      "Ġtov": 2162,
      "Ġsud": 2163,
      "rilib": 2164,
      "ĠSu": 2165,
      "lasi": 2166,
      "LA": 2167,
      "Ġista": 2168,
      "Ġmeni": 2169,
      "Ġenergiya": 2170,
      "Ġuslu": 2171,
      "ĠMah": 2172,
      "Ġag": 2173,
      "chon": 2174,
      "ĠShar": 2175,
      "Ġsug": 2176,
      "Ġhis": 2177,
      "tiya": 2178,
      "oz": 2179,
      "losa": 2180,
      "kid": 2181,
      "Ġyubor": 2182,
      "000": 2183,
      "Ġbilish": 2184,
      "Ġpred": 2185,
      "Ġkuchi": 2186,
      "malari": 2187,
      "Ġfik": 2188,
      "Ãł": 2189,
      "Ġsoat": 2190,
      "Ġjoyi": 2191,
      "yilgan": 2192,
      "ĠDo": 2193,
      "Ġfuqaro": 2194,
      "rtasida": 2195,
      "id": 2196,
      "Ġjumla": 2197,
      "pin": 2198,
      "Ġmavzu": 2199,
      "pay": 2200,
      "tkaz": 2201,
      "sko": 2202,
      "Ġraz": 2203,
      "Ġ23": 2204,
      "zid": 2205,
      "ĠFar": 2206,
      "sizlik": 2207,
      "nit": 2208,
      "ce": 2209,
      "mli": 2210,
      "lashadi": 2211,
      "rildi": 2212,
      "tishga": 2213,
      "Ġsm": 2214,
      "lanadigan": 2215,
      "Ġkuchli": 2216,
      "Ġkechi": 2217,
      "Ġkela": 2218,
      "ĠDar": 2219,
      "60": 2220,
      "indi": 2221,
      "Ġvujudga": 2222,
      "roz": 2223,
      "ologik": 2224,
      "Ġchet": 2225,
      "Ġtaraqqi": 2226,
      "Ġmulo": 2227,
      "Ġtarmoq": 2228,
      "Ġmaqo": 2229,
      "Ġtoza": 2230,
      "Ġshax": 2231,
      "alq": 2232,
      "Ġdars": 2233,
      "Ġatrofi": 2234,
      "Ġush": 2235,
      "ĠRo": 2236,
      "Ġerta": 2237,
      "Ġavva": 2238,
      "Ġgu": 2239,
      "Ġdastlab": 2240,
      "ĠAs": 2241,
      "Ġqiymat": 2242,
      "rtacha": 2243,
      "Ġqiyin": 2244,
      "yosh": 2245,
      "Ġerishi": 2246,
      "der": 2247,
      "Ġhayvon": 2248,
      "ĠTu": 2249,
      "miga": 2250,
      "Ġnur": 2251,
      "Ġkeyingi": 2252,
      "Ġdu": 2253,
      "Ġ;": 2254,
      "xoro": 2255,
      "Ġmoliya": 2256,
      "Ġishtirok": 2257,
      "Ġnash": 2258,
      "Ġtakli": 2259,
      "Ġularga": 2260,
      "Ġqoladi": 2261,
      "Ġnut": 2262,
      "Ġoyoq": 2263,
      "hiy": 2264,
      "ĠDemak": 2265,
      "Ġrang": 2266,
      "zidan": 2267,
      "Ġoxi": 2268,
      "Ġuyg": 2269,
      "Ġxarajat": 2270,
      "Ġisti": 2271,
      "Ġkes": 2272,
      "Ġyomon": 2273,
      "co": 2274,
      "shiq": 2275,
      "rang": 2276,
      "ĠSiz": 2277,
      "Ġformu": 2278,
      "Ġavto": 2279,
      "Ġixti": 2280,
      "lumotlar": 2281,
      "yx": 2282,
      "Ġxabar": 2283,
      "jal": 2284,
      "Ġand": 2285,
      "chalik": 2286,
      ",âĢĶ": 2287,
      "Ġvaqtda": 2288,
      "Ġtin": 2289,
      "Ġnamoyon": 2290,
      "ayyan": 2291,
      "Ġope": 2292,
      "yapti": 2293,
      "Ġusuli": 2294,
      "Ġodamlar": 2295,
      "Ġiqtisodi": 2296,
      "Sh": 2297,
      "shak": 2298,
      "ib": 2299,
      "Ġishlash": 2300,
      "Ġyasa": 2301,
      "raz": 2302,
      "Ġboshqarish": 2303,
      "minlash": 2304,
      "Ġshakli": 2305,
      "Ġjahon": 2306,
      "ĠAv": 2307,
      "Ġreaksiya": 2308,
      "ĠBiroq": 2309,
      "Ġolti": 2310,
      "Ġdeyiladi": 2311,
      "ralar": 2312,
      "Ġqobili": 2313,
      "vro": 2314,
      "tom": 2315,
      "yishi": 2316,
      "Ġxuddi": 2317,
      "24": 2318,
      "Ġimkoniyat": 2319,
      "ffi": 2320,
      "Ġbolalar": 2321,
      "Ġhatto": 2322,
      "lni": 2323,
      "vur": 2324,
      "Ġdavrida": 2325,
      "redi": 2326,
      "Ġkasb": 2327,
      "Ġtana": 2328,
      "80": 2329,
      "96": 2330,
      "Ġsiyosiy": 2331,
      "Ġxususiyat": 2332,
      "Ġzam": 2333,
      "toy": 2334,
      "Ġmag": 2335,
      "Ġurug": 2336,
      "lli": 2337,
      "korlik": 2338,
      "ligidan": 2339,
      "ram": 2340,
      "tibi": 2341,
      "masdan": 2342,
      "Ġoid": 2343,
      "Ġyirik": 2344,
      "Ġsodir": 2345,
      "Ġradi": 2346,
      "ĠRe": 2347,
      "Ġve": 2348,
      "Ġqadar": 2349,
      "Ġsig": 2350,
      "skiy": 2351,
      "Ġdastur": 2352,
      "ska": 2353,
      "Ġdaryo": 2354,
      "rav": 2355,
      "Ġkunda": 2356,
      "ĠKon": 2357,
      "Ġketadi": 2358,
      "Ġqisqa": 2359,
      "Ġyopi": 2360,
      "Ġberib": 2361,
      "van": 2362,
      "ĠEndi": 2363,
      "ĠXa": 2364,
      "Ġdaro": 2365,
      "ING": 2366,
      "Ġnazariya": 2367,
      "Ġboshqalar": 2368,
      "mizning": 2369,
      "lanma": 2370,
      "Ġayt": 2371,
      "Ġola": 2372,
      "Ġtopgan": 2373,
      "Ġqilishi": 2374,
      "den": 2375,
      "ĠPre": 2376,
      "tori": 2377,
      "mid": 2378,
      "Ġtosh": 2379,
      "lqin": 2380,
      "mush": 2381,
      "21": 2382,
      "vosita": 2383,
      "ektor": 2384,
      "OV": 2385,
      "llash": 2386,
      "Ġkucha": 2387,
      "Ġsababli": 2388,
      "ĠShi": 2389,
      "ca": 2390,
      "Ġsistema": 2391,
      "Ġdarajasi": 2392,
      "Ġuza": 2393,
      "udo": 2394,
      "lashtirilgan": 2395,
      "ĠYer": 2396,
      "stan": 2397,
      "Ġhujayra": 2398,
      "Ġtax": 2399,
      "lif": 2400,
      "tut": 2401,
      "Ġtashkilot": 2402,
      "hoyat": 2403,
      "Ġqir": 2404,
      "tion": 2405,
      "Ġikkita": 2406,
      "Ġkal": 2407,
      "bet": 2408,
      "til": 2409,
      "Ġaniqlanadi": 2410,
      "lagi": 2411,
      "Ġtasav": 2412,
      "Ġmua": 2413,
      "yap": 2414,
      "âĢ¦": 2415,
      "tkazish": 2416,
      "slar": 2417,
      "ĠBundan": 2418,
      "alsa": 2419,
      "tti": 2420,
      "Ġmuho": 2421,
      "Ġxodim": 2422,
      "Ġtalaba": 2423,
      "Ġtabiat": 2424,
      "Bu": 2425,
      "nosti": 2426,
      "Ġmening": 2427,
      "ana": 2428,
      "mp": 2429,
      "shar": 2430,
      "Ġml": 2431,
      "yog": 2432,
      "Ġmaqsadida": 2433,
      "Ġsharoit": 2434,
      "Ġloyiha": 2435,
      "ĠCho": 2436,
      "ĠAr": 2437,
      "Ġkelish": 2438,
      "Ġtushib": 2439,
      "Ġchaqi": 2440,
      "tni": 2441,
      "as": 2442,
      "IR": 2443,
      "oni": 2444,
      "Ġjis": 2445,
      "Ġhoki": 2446,
      "To": 2447,
      "ĠMuhammad": 2448,
      "Ġfizi": 2449,
      "lning": 2450,
      "Ġbadiiy": 2451,
      "ĠVA": 2452,
      "Ġetiladi": 2453,
      "Ġqad": 2454,
      "Ġmuayyan": 2455,
      "yoviy": 2456,
      "liklari": 2457,
      "ĠYu": 2458,
      "dval": 2459,
      "ĠDavlat": 2460,
      "zni": 2461,
      "hr": 2462,
      "ĠKeyin": 2463,
      "raf": 2464,
      "Ġuchraydi": 2465,
      "Ġyerga": 2466,
      "Ġsuyuq": 2467,
      "Ġoddiy": 2468,
      "Ha": 2469,
      "muna": 2470,
      "pol": 2471,
      "Ġbesh": 2472,
      "Ġtarixiy": 2473,
      "Ġsoliq": 2474,
      "lod": 2475,
      "Ġichiga": 2476,
      "Ġturlari": 2477,
      "ĠSamar": 2478,
      "shgan": 2479,
      "Ġaytib": 2480,
      "risidagi": 2481,
      "Ġyanada": 2482,
      "Ġbera": 2483,
      "Ġyashi": 2484,
      "sov": 2485,
      "Ġdavri": 2486,
      "rtasidagi": 2487,
      "Ġbunda": 2488,
      "Ġkech": 2489,
      "70": 2490,
      "Ġtayyorlash": 2491,
      "laka": 2492,
      "lining": 2493,
      "Ġ28": 2494,
      "Ġmab": 2495,
      "ket": 2496,
      "ĠXi": 2497,
      "Ġhudud": 2498,
      "Ġtaklif": 2499,
      "Ġbajarish": 2500,
      "Ġboshlab": 2501,
      "tim": 2502,
      "Ġmassa": 2503,
      "Ġaytgan": 2504,
      "Ġomil": 2505,
      "Ġpu": 2506,
      "Ġrus": 2507,
      "chinchi": 2508,
      "qqa": 2509,
      "Ġpsixo": 2510,
      "Ġyetish": 2511,
      "Ġpedagogi": 2512,
      "Ġser": 2513,
      "Ġayol": 2514,
      "Ġï¿½": 2515,
      "Ġ26": 2516,
      "shan": 2517,
      "lol": 2518,
      "Ġishi": 2519,
      "Ġoz": 2520,
      "naqa": 2521,
      "teriya": 2522,
      "Ġyarim": 2523,
      "Ġjamoa": 2524,
      "Ġ60": 2525,
      "ĠBar": 2526,
      "tilishi": 2527,
      "xshash": 2528,
      "ks": 2529,
      "ĠDi": 2530,
      "Ġhali": 2531,
      "mg": 2532,
      "ĠTemur": 2533,
      "Ġper": 2534,
      "goh": 2535,
      "Ġkirish": 2536,
      "kror": 2537,
      "ulton": 2538,
      "Ġxalqaro": 2539,
      "Ġelektr": 2540,
      "Ġbosi": 2541,
      "MA": 2542,
      "Ġaralash": 2543,
      "zatsiya": 2544,
      "Ġxulosa": 2545,
      "Ġolam": 2546,
      "Ġhozirgi": 2547,
      "ii": 2548,
      "Ġdoira": 2549,
      "kiston": 2550,
      "zgarishi": 2551,
      "Ġborish": 2552,
      "Ġayniqsa": 2553,
      "Ġmol": 2554,
      "Ġqilishga": 2555,
      "Ġoliy": 2556,
      "gor": 2557,
      "ĠTi": 2558,
      "rika": 2559,
      "Ġmexani": 2560,
      "ĠBuxoro": 2561,
      "kt": 2562,
      "ril": 2563,
      "ĠGa": 2564,
      "Ġyaratish": 2565,
      "Ġjang": 2566,
      "bay": 2567,
      "Ġsarf": 2568,
      "zin": 2569,
      "shlari": 2570,
      "rlar": 2571,
      "Ġmablag": 2572,
      "sofa": 2573,
      "gen": 2574,
      "Ġsuya": 2575,
      "Ġshuncha": 2576,
      "mos": 2577,
      "ĠSen": 2578,
      "ĠHi": 2579,
      "Ġtushu": 2580,
      "Ġmode": 2581,
      "Ġmikro": 2582,
      "noq": 2583,
      "Ġetdi": 2584,
      "ngra": 2585,
      "hur": 2586,
      "ST": 2587,
      "Ġmashg": 2588,
      "Ġ29": 2589,
      "sang": 2590,
      "Ġkol": 2591,
      "sport": 2592,
      "Ġfon": 2593,
      "Ġsana": 2594,
      "ĠBuning": 2595,
      "Ġmanfa": 2596,
      "ula": 2597,
      "Ġvaki": 2598,
      "siri": 2599,
      "Ġboshi": 2600,
      "stitut": 2601,
      "ey": 2602,
      "sli": 2603,
      "likdan": 2604,
      "Ġvaziyat": 2605,
      "Ġqog": 2606,
      "bati": 2607,
      "mning": 2608,
      "ssasa": 2609,
      "noyat": 2610,
      "Ġishga": 2611,
      "Ġsat": 2612,
      "ĠAbdul": 2613,
      "Ġsolish": 2614,
      "gin": 2615,
      "plab": 2616,
      "Ġsamara": 2617,
      "ĠQay": 2618,
      "ngni": 2619,
      "Ġochiq": 2620,
      "dina": 2621,
      "tirdi": 2622,
      "od": 2623,
      "ĠHu": 2624,
      "Ġmazkur": 2625,
      "Ġqayd": 2626,
      "linishi": 2627,
      "Ġ198": 2628,
      "onaviy": 2629,
      "âĢĿ,": 2630,
      "radigan": 2631,
      "Ġeta": 2632,
      "Ġhollarda": 2633,
      "mis": 2634,
      "Ġishlar": 2635,
      "Ġostida": 2636,
      "Ġustiga": 2637,
      "nin": 2638,
      "laydigan": 2639,
      "ero": 2640,
      "Ġpaytda": 2641,
      "Ġ}": 2642,
      "Ġqiyo": 2643,
      "Ġdaromad": 2644,
      "Ġmual": 2645,
      "qul": 2646,
      "Ġpara": 2647,
      "Ġmuassasa": 2648,
      "usta": 2649,
      "ngizni": 2650,
      "Ġmana": 2651,
      "ĠKim": 2652,
      "maydigan": 2653,
      "per": 2654,
      "ess": 2655,
      "rakat": 2656,
      "laridagi": 2657,
      "kun": 2658,
      "27": 2659,
      "Ġstan": 2660,
      "lgari": 2661,
      "hab": 2662,
      "Ġkeltirilgan": 2663,
      "kal": 2664,
      "ĠĠĠĠĠĠĠĠĠĠ": 2665,
      "Ġustida": 2666,
      "Ġxalqi": 2667,
      "Ġilo": 2668,
      "Ġsport": 2669,
      "ER": 2670,
      "UR": 2671,
      "rom": 2672,
      "lekt": 2673,
      "Ġbelgilangan": 2674,
      "ĠAmir": 2675,
      "Ġketa": 2676,
      "Ġtarji": 2677,
      "Ġijro": 2678,
      "qand": 2679,
      "ldan": 2680,
      "Ġmm": 2681,
      "Ġkama": 2682,
      "Ġqiymati": 2683,
      "Ġmohiyati": 2684,
      "Ġtadqiqot": 2685,
      "Ġrahbar": 2686,
      "Ġbayon": 2687,
      "Ġmajbu": 2688,
      "Ġtarzda": 2689,
      "ĠIk": 2690,
      "och": 2691,
      "bosh": 2692,
      "Ġehtiyo": 2693,
      "Bo": 2694,
      "ĠAna": 2695,
      "lidan": 2696,
      "Ġusta": 2697,
      "mizni": 2698,
      "ĠJo": 2699,
      "Ġorganizm": 2700,
      "Ġjismoniy": 2701,
      "zadi": 2702,
      "ĠBirinchi": 2703,
      "Ġpasa": 2704,
      "Ġ21": 2705,
      "Ġuchi": 2706,
      "Ġmasofa": 2707,
      "sob": 2708,
      "Ġeritma": 2709,
      "naya": 2710,
      "fak": 2711,
      "pincha": 2712,
      "Ġovqat": 2713,
      "Ġtopa": 2714,
      "Ġuyi": 2715,
      "bida": 2716,
      "ĠUlarning": 2717,
      "fta": 2718,
      "jet": 2719,
      "ĠGo": 2720,
      "Ġishonch": 2721,
      "Ġekanligini": 2722,
      "Ġamaliy": 2723,
      "qaror": 2724,
      "Ta": 2725,
      "Ġco": 2726,
      "ĠW": 2727,
      "riladigan": 2728,
      "boy": 2729,
      "Ġoldida": 2730,
      "Ġmusi": 2731,
      "ddi": 2732,
      "Ġsez": 2733,
      "ĠYuq": 2734,
      "chisi": 2735,
      "ber": 2736,
      "Ġyetib": 2737,
      "ju": 2738,
      "23": 2739,
      "Ġhajmi": 2740,
      "mizga": 2741,
      "Ġtartibi": 2742,
      "Ġtovush": 2743,
      "Ġnamuna": 2744,
      "pon": 2745,
      "45": 2746,
      "ĠAf": 2747,
      "Ġhuquqi": 2748,
      "hu": 2749,
      "vich": 2750,
      "Ġavval": 2751,
      "Ġhola": 2752,
      "Ġresurs": 2753,
      "Men": 2754,
      "bil": 2755,
      "biriga": 2756,
      "Ġobyekt": 2757,
      "Ġorasidagi": 2758,
      "doq": 2759,
      "shma": 2760,
      "ore": 2761,
      "IL": 2762,
      "Ġahamiyatga": 2763,
      "Ġmoddalar": 2764,
      "Ġbevosita": 2765,
      "Ġkir": 2766,
      "Ġholati": 2767,
      "tirilgan": 2768,
      "rij": 2769,
      "lotlar": 2770,
      "ĠBO": 2771,
      "Ġfoiz": 2772,
      "Ġvaqtida": 2773,
      "âĢ¦âĢ¦": 2774,
      "Ġquyidagicha": 2775,
      "mmat": 2776,
      "Ġpoy": 2777,
      "chalar": 2778,
      "Ġtasdiq": 2779,
      "Ġkasal": 2780,
      "sos": 2781,
      "ĠCha": 2782,
      "gir": 2783,
      "Ġharbiy": 2784,
      "Ġinti": 2785,
      "ljal": 2786,
      "Ġchiqdi": 2787,
      "Ġgacha": 2788,
      "Ġeka": 2789,
      "Ġalmash": 2790,
      "nost": 2791,
      "Ġsaqlash": 2792,
      "Ġulug": 2793,
      "ï¿½ï¿½ï¿½ï¿½ï¿½ï¿½ï¿½ï¿½ï¿½ï¿½ï¿½ï¿½ï¿½ï¿½ï¿½ï¿½ï¿½ï¿½ï¿½ï¿½ï¿½ï¿½ï¿½ï¿½ï¿½ï¿½ï¿½ï¿½ï¿½ï¿½ï¿½ï¿½": 2794,
      "Ġ197": 2795,
      "Ġtako": 2796,
      "Ġelektron": 2797,
      "zning": 2798,
      "Ġumum": 2799,
      "Ġchora": 2800,
      "Ġmashq": 2801,
      "Ġahvo": 2802,
      "Ġdastlabki": 2803,
      "dat": 2804,
      "Ġalbatta": 2805,
      "Ġxato": 2806,
      "LARI": 2807,
      "koya": 2808,
      "tex": 2809,
      "\".": 2810,
      "Ġazo": 2811,
      "Ġformula": 2812,
      "rsatilgan": 2813,
      "Ġmayda": 2814,
      "ĠCH": 2815,
      "vod": 2816,
      "batida": 2817,
      "Ġïĥ": 2818,
      "Ġchizi": 2819,
      "Ġmoddiy": 2820,
      "Ġfalsa": 2821,
      "Ġyetkazi": 2822,
      "ylik": 2823,
      "ing": 2824,
      "Ġyarat": 2825,
      "av": 2826,
      "Ġxarakter": 2827,
      "hqon": 2828,
      ",,": 2829,
      "grafik": 2830,
      "stven": 2831,
      "baqa": 2832,
      "Ġrespublika": 2833,
      "rilish": 2834,
      "bini": 2835,
      "AM": 2836,
      "?!": 2837,
      "Ġkoe": 2838,
      "tatsiya": 2839,
      "Ġyolg": 2840,
      "Ġmaydo": 2841,
      "Ã¨": 2842,
      "Ġkesi": 2843,
      "maslik": 2844,
      "SS": 2845,
      "Ġkons": 2846,
      "ĠĠĠĠčĊ": 2847,
      "Ġxossa": 2848,
      "Ġad": 2849,
      "uvchilar": 2850,
      ".âĢĶ": 2851,
      "Ġyigit": 2852,
      "Ġahamiyati": 2853,
      "Ġhur": 2854,
      "tr": 2855,
      "mlar": 2856,
      "Ġmalaka": 2857,
      "Ġshakllantirish": 2858,
      "Ġdevor": 2859,
      "yla": 2860,
      "UN": 2861,
      "Ġtuzilishi": 2862,
      "mino": 2863,
      "tali": 2864,
      "mok": 2865,
      "Ġfaoliyatini": 2866,
      "Ġtavsi": 2867,
      "Ġberiladi": 2868,
      "cheski": 2869,
      "Ġmolek": 2870,
      "vesti": 2871,
      "Ġqachon": 2872,
      "toq": 2873,
      "las": 2874,
      "Ġqatna": 2875,
      "masining": 2876,
      "Ġhuquqiy": 2877,
      "Ġoxir": 2878,
      "Ġado": 2879,
      "Ġqonu": 2880,
      "zoda": 2881,
      "perat": 2882,
      "Ġatrof": 2883,
      "shoh": 2884,
      "Ġqolish": 2885,
      "Ġeki": 2886,
      "ĠXalq": 2887,
      "voy": 2888,
      "kul": 2889,
      "cho": 2890,
      "Ġqurilma": 2891,
      "ci": 2892,
      "Ġilgari": 2893,
      "ĠSH": 2894,
      "Ġtok": 2895,
      "qol": 2896,
      "Ġtani": 2897,
      "Ġprin": 2898,
      "Ġyoq": 2899,
      "ĠPe": 2900,
      "chki": 2901,
      "Ġjoriy": 2902,
      "Ġketma": 2903,
      "mash": 2904,
      "Ġkapi": 2905,
      "mdan": 2906,
      "Ġjumladan": 2907,
      "stvo": 2908,
      "tildi": 2909,
      "hbat": 2910,
      "ĠKu": 2911,
      "ev": 2912,
      "Ġdia": 2913,
      "Ġur": 2914,
      "Ġshug": 2915,
      "qtisodiy": 2916,
      "Ġkurash": 2917,
      "Ġetuvchi": 2918,
      "Ġijod": 2919,
      "Ġpla": 2920,
      "ĠIkkinchi": 2921,
      "IYA": 2922,
      "Ġmetal": 2923,
      "Ġtuz": 2924,
      "ĠAh": 2925,
      "sht": 2926,
      "dimgi": 2927,
      "Ġyod": 2928,
      "ISH": 2929,
      "Ġtasavvur": 2930,
      "yad": 2931,
      "Ġoshiriladi": 2932,
      "nii": 2933,
      "Ġelektro": 2934,
      "koy": 2935,
      "OL": 2936,
      "Ġqatlam": 2937,
      "uldu": 2938,
      "lur": 2939,
      "Ġmanfaat": 2940,
      "masa": 2941,
      "ramiz": 2942,
      "Ġomi": 2943,
      "Ġsamarali": 2944,
      "Ġrivojlanish": 2945,
      "Ġaylan": 2946,
      "sun": 2947,
      "ĠMA": 2948,
      "Ġbemor": 2949,
      "43": 2950,
      "ĠPrezid": 2951,
      "Ġ*": 2952,
      "Ġ196": 2953,
      "ĠTA": 2954,
      "Ġinte": 2955,
      "Ġxususiyatlari": 2956,
      "stva": 2957,
      "ĠPro": 2958,
      "dra": 2959,
      "Ġir": 2960,
      "Ġkur": 2961,
      "ĠQora": 2962,
      "Ġedim": 2963,
      "jak": 2964,
      "ĠAbu": 2965,
      "Ġtem": 2966,
      "Ġoziq": 2967,
      "Ġishlatiladi": 2968,
      "Ġmulk": 2969,
      "Ġmis": 2970,
      "Ġby": 2971,
      "Ġash": 2972,
      "Ġzich": 2973,
      "qqat": 2974,
      "Ġholatda": 2975,
      "Ġtakror": 2976,
      "masligi": 2977,
      "ĠQon": 2978,
      "jar": 2979,
      "26": 2980,
      "yotgani": 2981,
      "ydir": 2982,
      "Ġbundan": 2983,
      "Ġmeva": 2984,
      "nali": 2985,
      "Ġnafas": 2986,
      "ĠUni": 2987,
      "Ġtakomil": 2988,
      "Ġolishi": 2989,
      "tub": 2990,
      "ĠMana": 2991,
      "Yo": 2992,
      "shon": 2993,
      "Ġdavrda": 2994,
      "modda": 2995,
      "rix": 2996,
      "ngari": 2997,
      "ĠâĢĶâĢĶ": 2998,
      "qitish": 2999,
      "Ġsinf": 3000,
      "Ġbosib": 3001,
      "oma": 3002,
      "Ġbank": 3003,
      "tsiy": 3004,
      "katsiya": 3005,
      "EN": 3006,
      "Ġsxe": 3007,
      "âĢĺ-": 3008,
      "Ġhisoblash": 3009,
      "grafiya": 3010,
      "Ġataladi": 3011,
      "Ġ!": 3012,
      "Ġtarkibida": 3013,
      "Ġturk": 3014,
      "Ġ35": 3015,
      "Ġmadaniyat": 3016,
      "Ġmahalliy": 3017,
      "Ġasoslangan": 3018,
      "ðĿ": 3019,
      "llaniladi": 3020,
      "ÃłÃ": 3021,
      "Ġziyo": 3022,
      "Ġasbob": 3023,
      "Ġshunda": 3024,
      "29": 3025,
      "28": 3026,
      "Ġqahra": 3027,
      "ffa": 3028,
      "Ġtomonga": 3029,
      "Ġchap": 3030,
      "IM": 3031,
      "Ġibn": 3032,
      "Ġishlari": 3033,
      "Ġfarza": 3034,
      "200": 3035,
      "tez": 3036,
      "ĠIkki": 3037,
      "niki": 3038,
      "xassi": 3039,
      "Ġnam": 3040,
      "Ġxush": 3041,
      "Ġkoeffi": 3042,
      "Ġyetarli": 3043,
      "Ġtemir": 3044,
      "Ġkri": 3045,
      "Ġ...": 3046,
      "ĠSamarqand": 3047,
      "OT": 3048,
      "kala": 3049,
      "ĠTar": 3050,
      "Ġtavsiya": 3051,
      "Ġmuro": 3052,
      "Ġtom": 3053,
      "tura": 3054,
      "Ġxon": 3055,
      "ngga": 3056,
      "Ġobra": 3057,
      "ĠRos": 3058,
      "Ġkamay": 3059,
      "qir": 3060,
      "Ġprof": 3061,
      "stika": 3062,
      "chiligi": 3063,
      "Ġbul": 3064,
      "Ġnihoyat": 3065,
      "Ġyurak": 3066,
      "Ġbuni": 3067,
      "Ġchor": 3068,
      "Ġdoimiy": 3069,
      "ĠXX": 3070,
      "razm": 3071,
      "tka": 3072,
      "Ġtah": 3073,
      "nining": 3074,
      "ak": 3075,
      "Ġqobiliyati": 3076,
      "Ġbuyuk": 3077,
      "Ġ45": 3078,
      ".-": 3079,
      "ulot": 3080,
      "IK": 3081,
      "Ġfoydalaniladi": 3082,
      "Ġtiki": 3083,
      "Ġeg": 3084,
      "Ġamali": 3085,
      "ĠEr": 3086,
      "ĠYana": 3087,
      "chiq": 3088,
      "Ġmashhur": 3089,
      "ĠMaz": 3090,
      "Ġdam": 3091,
      "llab": 3092,
      "maning": 3093,
      "onal": 3094,
      "Ġraqa": 3095,
      "OH": 3096,
      "yam": 3097,
      "Ġsingari": 3098,
      "44": 3099,
      "Ġildi": 3100,
      "riyati": 3101,
      "chasi": 3102,
      "Ġdush": 3103,
      "rniga": 3104,
      "Ġinter": 3105,
      "35": 3106,
      "75": 3107,
      "Ġyengil": 3108,
      "Ġeski": 3109,
      "Ġbek": 3110,
      "Ġmaqsadga": 3111,
      "Ġyozilgan": 3112,
      "aza": 3113,
      "Ġboshqaruv": 3114,
      "Ġtushgan": 3115,
      "Ġberishi": 3116,
      "Ġjism": 3117,
      "nu": 3118,
      "Ġmadaniyati": 3119,
      "Ġyori": 3120,
      "nidan": 3121,
      "Ġbosim": 3122,
      "luk": 3123,
      "taqa": 3124,
      "Ġharorat": 3125,
      "Ġqadam": 3126,
      "----": 3127,
      "aa": 3128,
      "Ġerish": 3129,
      "maga": 3130,
      "zlarini": 3131,
      "Ġusullari": 3132,
      "Ġberuvchi": 3133,
      "ĠOy": 3134,
      "biyot": 3135,
      "vropa": 3136,
      "Ġpaxta": 3137,
      "Ġab": 3138,
      "Ġqilsa": 3139,
      "daryo": 3140,
      "talar": 3141,
      "Ġsolib": 3142,
      "ĠMil": 3143,
      "ining": 3144,
      "Ġhikoya": 3145,
      "oo": 3146,
      "Ġulardan": 3147,
      "Ġishchi": 3148,
      "yetsya": 3149,
      "yoriy": 3150,
      "Ġuyu": 3151,
      "nggi": 3152,
      "ndan": 3153,
      "Ġkla": 3154,
      "Ġix": 3155,
      "him": 3156,
      "Ġqut": 3157,
      "Ġqiladigan": 3158,
      "fera": 3159,
      "Ya": 3160,
      "jaligi": 3161,
      "ldir": 3162,
      "Ġkredi": 3163,
      "rmon": 3164,
      "ĠOdam": 3165,
      "Ġviloyat": 3166,
      "Ġhaqiqiy": 3167,
      "Ġtekshirish": 3168,
      "Ġqimmat": 3169,
      "Ġekin": 3170,
      "ĠMat": 3171,
      "Ġtaqsim": 3172,
      "larim": 3173,
      "nova": 3174,
      "Ġgidro": 3175,
      "Ġbaholash": 3176,
      "AL": 3177,
      "sub": 3178,
      "lashish": 3179,
      "sar": 3180,
      "Ġinso": 3181,
      "aroq": 3182,
      "Ġimkoniyati": 3183,
      "Ġmuva": 3184,
      "plam": 3185,
      "Ġketishi": 3186,
      "lok": 3187,
      "lamchi": 3188,
      "Ġqud": 3189,
      "ĠShuningdek": 3190,
      "Ġnutq": 3191,
      "99": 3192,
      "Sa": 3193,
      "SO": 3194,
      "ddin": 3195,
      "Ġiq": 3196,
      "noye": 3197,
      "Ġtinch": 3198,
      "tadigan": 3199,
      "Ġyar": 3200,
      "Ġjinoyat": 3201,
      "tensi": 3202,
      "ĠYi": 3203,
      "ĠVo": 3204,
      "bod": 3205,
      "Ġyorug": 3206,
      "toriya": 3207,
      "Ġtexnika": 3208,
      "Ġturibdi": 3209,
      "Ġkura": 3210,
      "mining": 3211,
      "Ġmehmon": 3212,
      "sirida": 3213,
      "dal": 3214,
      "Ã®": 3215,
      "Ġoson": 3216,
      "Ġtopish": 3217,
      "Ġtomondan": 3218,
      "ilgan": 3219,
      "Ġeko": 3220,
      "Ġbay": 3221,
      "Ġbarqaror": 3222,
      "Ġ^": 3223,
      "laga": 3224,
      "metr": 3225,
      "Ġborishi": 3226,
      "Ġzan": 3227,
      "Ġyagona": 3228,
      "Ġxususiy": 3229,
      "gini": 3230,
      "Ġochib": 3231,
      "Ġtexnik": 3232,
      "Ġerka": 3233,
      "Ġjur": 3234,
      "Ġsanoat": 3235,
      "Ġbuyum": 3236,
      "Ġoldiga": 3237,
      "laba": 3238,
      "Ġtortib": 3239,
      "yili": 3240,
      "Ġehtiyoj": 3241,
      "faza": 3242,
      "Ġxotin": 3243,
      "Ġtuta": 3244,
      "pu": 3245,
      "ĠLa": 3246,
      "format": 3247,
      "Ġturish": 3248,
      "Ġxayo": 3249,
      "Ġrux": 3250,
      "Ã½": 3251,
      "Ġmoliyaviy": 3252,
      "ler": 3253,
      "Ġyili": 3254,
      "parat": 3255,
      "Ġtak": 3256,
      "Ġbiron": 3257,
      "Ġishlati": 3258,
      "kaziy": 3259,
      "Ġtilida": 3260,
      "ĠQur": 3261,
      "Ġyuksak": 3262,
      "Ġyozib": 3263,
      "ĠIl": 3264,
      "sal": 3265,
      "Ġam": 3266,
      "Ġozod": 3267,
      "Ġimkon": 3268,
      "gungi": 3269,
      "ydigan": 3270,
      "kuna": 3271,
      "qiqa": 3272,
      "Ġyilda": 3273,
      "Ġparcha": 3274,
      "Ġnazarda": 3275,
      "ĠUmu": 3276,
      "unon": 3277,
      "Ġijodi": 3278,
      "Ġge": 3279,
      "Ġissiqlik": 3280,
      "Ġmadaniy": 3281,
      "diya": 3282,
      "Ġlab": 3283,
      "ĠAk": 3284,
      "Ġadabiy": 3285,
      "Ġsezi": 3286,
      "rian": 3287,
      "tsya": 3288,
      "Ġfer": 3289,
      "Ġetishi": 3290,
      "rug": 3291,
      "Ġsiyosa": 3292,
      "yida": 3293,
      "Ġchog": 3294,
      "tiriladi": 3295,
      "paniya": 3296,
      "ĠMeh": 3297,
      "Ġshuni": 3298,
      "tarib": 3299,
      "Ġpayt": 3300,
      "Ġhuku": 3301,
      "Ġtaraf": 3302,
      "Ġtib": 3303,
      "lmasligi": 3304,
      "Ġver": 3305,
      "jir": 3306,
      "mada": 3307,
      "Ġdey": 3308,
      "Ġchto": 3309,
      "ly": 3310,
      "Ġkeskin": 3311,
      "Ġmazmuni": 3312,
      "Ġtut": 3313,
      "ngizga": 3314,
      "erv": 3315,
      "biq": 3316,
      "Ġkeladigan": 3317,
      "uli": 3318,
      "Ġayo": 3319,
      "Ġiy": 3320,
      "unar": 3321,
      "Ġshaxsiy": 3322,
      "sle": 3323,
      "Ġsto": 3324,
      "ĠĠĠĠĠĠĠĠĠĠĠĠĠĠĠĠĠĠĠĠĠĠĠĠ": 3325,
      "lanmagan": 3326,
      "Ġkishilar": 3327,
      "Ġbering": 3328,
      "Ġobyek": 3329,
      "ĠBoshqa": 3330,
      "ĠSuv": 3331,
      "dod": 3332,
      "Ġnaq": 3333,
      "Ġtala": 3334,
      "ĠHozirgi": 3335,
      "ĠRossiya": 3336,
      "ny": 3337,
      "rate": 3338,
      "Ġmet": 3339,
      "dash": 3340,
      "Ġmillat": 3341,
      "EK": 3342,
      "lmaydigan": 3343,
      "Ġpoli": 3344,
      "chilari": 3345,
      "Ġsari": 3346,
      "Ġmutaxassi": 3347,
      "Ġdol": 3348,
      "Ġzamonaviy": 3349,
      "habbat": 3350,
      "ĠOliy": 3351,
      "Ġlar": 3352,
      "ksid": 3353,
      "Ġilm": 3354,
      "OM": 3355,
      "qoq": 3356,
      "LIK": 3357,
      "sep": 3358,
      "usi": 3359,
      "Ġsovuq": 3360,
      "ham": 3361,
      "Ġhaqiqat": 3362,
      "Ġopa": 3363,
      "Ġkg": 3364,
      "ĠMazkur": 3365,
      "Ġqaratilgan": 3366,
      "pir": 3367,
      "Ġsuhbat": 3368,
      "shab": 3369,
      "Ġvoz": 3370,
      "yidagi": 3371,
      "Ġgar": 3372,
      "Ġparda": 3373,
      "Ġtarqalgan": 3374,
      "laymiz": 3375,
      "Ġmisol": 3376,
      "Ġtashlab": 3377,
      "mul": 3378,
      "Ġmajmu": 3379,
      "95": 3380,
      "Ġqulay": 3381,
      "mand": 3382,
      "vaniya": 3383,
      "sional": 3384,
      "lanayotgan": 3385,
      "ĠAx": 3386,
      "Ġsalo": 3387,
      "Ġedilar": 3388,
      "Na": 3389,
      "Ġtele": 3390,
      "Ġïģ": 3391,
      "Ġuchinchi": 3392,
      "fer": 3393,
      "Ġtirik": 3394,
      "Ġsavol": 3395,
      "Ġjal": 3396,
      "âĢĺâĢĻ": 3397,
      "Ġrasm": 3398,
      "tardi": 3399,
      "qay": 3400,
      "Ġqurol": 3401,
      "Ġindi": 3402,
      "Ġburchak": 3403,
      "vda": 3404,
      "shu": 3405,
      "zbekistonda": 3406,
      "Ġyal": 3407,
      "ĠTurkiston": 3408,
      "Ġodatda": 3409,
      "Ġyurish": 3410,
      "Ġyuragi": 3411,
      "Ġsamarador": 3412,
      "ppa": 3413,
      "Ġdehqon": 3414,
      "ĠLo": 3415,
      "Ġucha": 3416,
      "Ġ[": 3417,
      "versi": 3418,
      "ĠXorazm": 3419,
      "Ġbizning": 3420,
      "Ġmaro": 3421,
      "pchilik": 3422,
      "Ġdori": 3423,
      "ĠFi": 3424,
      "ĠGul": 3425,
      "Ġ80": 3426,
      "sii": 3427,
      "Ġmuvaffa": 3428,
      "sur": 3429,
      "idan": 3430,
      "tad": 3431,
      "Ġtir": 3432,
      "Ġpedagogik": 3433,
      "ganida": 3434,
      "Ġnech": 3435,
      "Ġvazir": 3436,
      "rimov": 3437,
      "ziy": 3438,
      "stru": 3439,
      "Ġvaqti": 3440,
      "yut": 3441,
      "Ġtushdi": 3442,
      "hol": 3443,
      "Ġfikri": 3444,
      "Ġsotsi": 3445,
      "yotida": 3446,
      "Ġustun": 3447,
      "rinib": 3448,
      "ĠOta": 3449,
      "urt": 3450,
      "Ġmintaqa": 3451,
      "ytirish": 3452,
      "ster": 3453,
      "ĠïĢ½": 3454,
      "nom": 3455,
      "rinishi": 3456,
      "Ġ70": 3457,
      "Ġtafak": 3458,
      "pik": 3459,
      "Ġizoh": 3460,
      "ĠBer": 3461,
      "yoz": 3462,
      "yatsiya": 3463,
      "ĠMarkaziy": 3464,
      "Ġavlod": 3465,
      "Ġsul": 3466,
      "lganini": 3467,
      "Ġqalin": 3468,
      "ĠAbdu": 3469,
      "fon": 3470,
      "ĠInson": 3471,
      "Ġhududi": 3472,
      "Ġajralib": 3473,
      "ganidan": 3474,
      "chka": 3475,
      "ĠNatija": 3476,
      "Ġijodiy": 3477,
      "yabr": 3478,
      "Ġhov": 3479,
      "Ġkimyoviy": 3480,
      "Ġisbot": 3481,
      "ee": 3482,
      "metrik": 3483,
      "ĠTash": 3484,
      "gach": 3485,
      "Ġfir": 3486,
      "Ġzarra": 3487,
      "AV": 3488,
      "ĠYangi": 3489,
      "Ġshartnoma": 3490,
      "42": 3491,
      "Ġmusiqa": 3492,
      "Ġarab": 3493,
      "Ġatrofida": 3494,
      "yarli": 3495,
      "Ġqolib": 3496,
      "Ġqili": 3497,
      "ĠXudo": 3498,
      "Ġ90": 3499,
      "yuter": 3500,
      "ĠSulton": 3501,
      "rinadi": 3502,
      "Ġxudo": 3503,
      "Ġdeydi": 3504,
      "red": 3505,
      "Ġmansub": 3506,
      "gal": 3507,
      "Ġbiroz": 3508,
      "dil": 3509,
      "Ġkm": 3510,
      "Ġ..": 3511,
      "Ġchiqishi": 3512,
      "Ġaktiv": 3513,
      "Ġqor": 3514,
      "sen": 3515,
      "dak": 3516,
      "urta": 3517,
      "zlik": 3518,
      "leks": 3519,
      "Ġtartibga": 3520,
      "Ġqul": 3521,
      "Ġmate": 3522,
      "linib": 3523,
      "________": 3524,
      "Ġsak": 3525,
      "Ġkuy": 3526,
      "rsatib": 3527,
      "ologiya": 3528,
      "Ġvafo": 3529,
      "Ġmiya": 3530,
      "ray": 3531,
      "pka": 3532,
      "zik": 3533,
      "55": 3534,
      "Ġtanish": 3535,
      "bin": 3536,
      "Ġadabiyoti": 3537,
      "Ġstruk": 3538,
      "Ġ36": 3539,
      "Ġsim": 3540,
      "ĠBola": 3541,
      "Ġustidan": 3542,
      "Ġder": 3543,
      "Ġbizga": 3544,
      "Ġajratib": 3545,
      "Ġviloyati": 3546,
      "Ġprinsi": 3547,
      "Ġfil": 3548,
      "Ġtayin": 3549,
      "Ġolin": 3550,
      "Ġayb": 3551,
      "Ġhammasi": 3552,
      "Ġnon": 3553,
      "Ġxam": 3554,
      "biga": 3555,
      "ĠSharq": 3556,
      "DI": 3557,
      "ĠMay": 3558,
      "viya": 3559,
      "ĠMan": 3560,
      "Ġtepa": 3561,
      "simliklar": 3562,
      "Ġqaraganda": 3563,
      "Ġoha": 3564,
      "Ġ33": 3565,
      "Ġdiniy": 3566,
      "nab": 3567,
      "Ġmero": 3568,
      "Ġkeltirib": 3569,
      "jadval": 3570,
      "Ġayni": 3571,
      "Ġdlya": 3572,
      "Ġsenga": 3573,
      "Ġit": 3574,
      "Ġrost": 3575,
      "Ġmuhofaza": 3576,
      "Ġbelgilanadi": 3577,
      "Ġnavbat": 3578,
      "ljallangan": 3579,
      "Ġjazo": 3580,
      "pozi": 3581,
      "Ġqahramon": 3582,
      "Ġshaklida": 3583,
      "Ġborgan": 3584,
      "pla": 3585,
      "ĠâĪ": 3586,
      "ris": 3587,
      "Ġmajbur": 3588,
      "Ġbosqichi": 3589,
      "lub": 3590,
      "rog": 3591,
      "Ġjiha": 3592,
      "qich": 3593,
      "zam": 3594,
      "garlik": 3595,
      "tkir": 3596,
      "Ġharakati": 3597,
      "gul": 3598,
      "ĠOl": 3599,
      "41": 3600,
      "zgarishlar": 3601,
      "stitu": 3602,
      ")-": 3603,
      "pen": 3604,
      "tmasi": 3605,
      "zasi": 3606,
      "Ġjoyda": 3607,
      "Ġdengiz": 3608,
      "Ġtuzilgan": 3609,
      "Ġqaro": 3610,
      "ĠLi": 3611,
      "Ġdoim": 3612,
      "GI": 3613,
      "ðĿĳ": 3614,
      "nya": 3615,
      "Ġuzunligi": 3616,
      "Ġeshik": 3617,
      "Ġkiritish": 3618,
      "yanch": 3619,
      "Ġpol": 3620,
      "tra": 3621,
      "Ġpartiya": 3622,
      "Ġekanligi": 3623,
      "Ġinvesti": 3624,
      "Ġquloq": 3625,
      "sad": 3626,
      "zlash": 3627,
      "Ġoldingi": 3628,
      "Ġinf": 3629,
      "mer": 3630,
      "Ġmaf": 3631,
      "Ni": 3632,
      "haza": 3633,
      "fik": 3634,
      "sab": 3635,
      "Ġila": 3636,
      "NI": 3637,
      "Ġyum": 3638,
      "Ġbaxt": 3639,
      "mlari": 3640,
      "Ġmetod": 3641,
      "ĠFaqat": 3642,
      "Ġtuman": 3643,
      "Ġyot": 3644,
      "sosiy": 3645,
      "limo": 3646,
      "Ġbirgalikda": 3647,
      "navi": 3648,
      "nalishi": 3649,
      "zdan": 3650,
      "Ġpat": 3651,
      "Ġnarsani": 3652,
      "ĠKat": 3653,
      "ĠYevropa": 3654,
      "usxa": 3655,
      "Ġsekin": 3656,
      "dirish": 3657,
      "Ġmasla": 3658,
      "Ġyozuv": 3659,
      "por": 3660,
      "TA": 3661,
      "Ġstandar": 3662,
      "Ġmazm": 3663,
      "qini": 3664,
      "Ġyuldu": 3665,
      "Ġyetak": 3666,
      "Ġdeyarli": 3667,
      "Ġshunga": 3668,
      "Ġehtimo": 3669,
      "ĠAlloh": 3670,
      "Ĥ¬": 3671,
      "luksiz": 3672,
      "Ġqam": 3673,
      "Ġboshlang": 3674,
      "Ġmazmu": 3675,
      "Ġbuning": 3676,
      "lilik": 3677,
      "Ġomma": 3678,
      "ĠMaj": 3679,
      "ban": 3680,
      "Ġkito": 3681,
      "shat": 3682,
      "muriy": 3683,
      "Ġdeya": 3684,
      "lidir": 3685,
      "Ġxur": 3686,
      "nob": 3687,
      "rilayotgan": 3688,
      "Ġkuzatiladi": 3689,
      "dorlik": 3690,
      "jara": 3691,
      "Ġif": 3692,
      "Ġinsho": 3693,
      "harakat": 3694,
      "zgu": 3695,
      "Ġmut": 3696,
      "Ġvositalari": 3697,
      "Ġnega": 3698,
      "pgina": 3699,
      "Ġhisobiga": 3700,
      "Ġband": 3701,
      "nasi": 3702,
      "ĠNima": 3703,
      "33": 3704,
      "Ġgene": 3705,
      "Ġqaytib": 3706,
      "Ġkuchlanish": 3707,
      "Ġyotgan": 3708,
      "stlar": 3709,
      "jen": 3710,
      "Ġug": 3711,
      "ed": 3712,
      "ngda": 3713,
      "giga": 3714,
      "ĠAQ": 3715,
      "oyib": 3716,
      "Ġtezligi": 3717,
      "pul": 3718,
      "Ġchiqarib": 3719,
      "gay": 3720,
      "Ġnazariy": 3721,
      "Âł": 3722,
      "Ġsotib": 3723,
      "kom": 3724,
      "Ġtavsif": 3725,
      "Ġushlab": 3726,
      "Ġsek": 3727,
      "Ġilk": 3728,
      "Ġijobiy": 3729,
      "Ġdon": 3730,
      "Ġido": 3731,
      "Ġmiso": 3732,
      "UL": 3733,
      "Ġiqtisodiyot": 3734,
      "Ġtemperat": 3735,
      "Ġquruq": 3736,
      "loqiy": 3737,
      "ĠRu": 3738,
      "kazo": 3739,
      "qima": 3740,
      "Ġbois": 3741,
      "Ġdushman": 3742,
      "ley": 3743,
      "quvchilar": 3744,
      "77": 3745,
      "Ġqismida": 3746,
      "Ġmiqdorda": 3747,
      "sadi": 3748,
      "Ġguruhi": 3749,
      "bha": 3750,
      "likdagi": 3751,
      "Ba": 3752,
      "Ġqilindi": 3753,
      "Ġchar": 3754,
      "Ġjiddiy": 3755,
      "Ġtamoyil": 3756,
      "luq": 3757,
      "Ġishni": 3758,
      "Ġbarg": 3759,
      "-âĢĶ": 3760,
      "kib": 3761,
      "lumki": 3762,
      "Ġasta": 3763,
      "rig": 3764,
      "48": 3765,
      "Ġboshlaydi": 3766,
      "Ġtuyg": 3767,
      "qal": 3768,
      "orlar": 3769,
      "Ġjalb": 3770,
      "Ġtushadi": 3771,
      "Ġketish": 3772,
      "Ġamir": 3773,
      "ruq": 3774,
      "sish": 3775,
      "Ka": 3776,
      "Ġsodda": 3777,
      "viga": 3778,
      "Ġosmon": 3779,
      "Ġqadriyat": 3780,
      "jaat": 3781,
      "Ġmetodi": 3782,
      "zgartirish": 3783,
      "shoq": 3784,
      "lashuvi": 3785,
      "lashni": 3786,
      "lganligi": 3787,
      "Ġ(Â«": 3788,
      "Ġqarash": 3789,
      "lisher": 3790,
      "Ġbol": 3791,
      "sharo": 3792,
      "ĠMash": 3793,
      "Ġoperatsiya": 3794,
      "Ġsohasida": 3795,
      "Ġmun": 3796,
      "para": 3797,
      "rinish": 3798,
      "ĠFarg": 3799,
      "rsat": 3800,
      "tilib": 3801,
      "Ġshaxslar": 3802,
      "Ġmuhit": 3803,
      "ridagi": 3804,
      "Ġturar": 3805,
      "ĠII": 3806,
      "Ġyurgan": 3807,
      "Ġorzu": 3808,
      "chining": 3809,
      "Ġerishish": 3810,
      "Ġili": 3811,
      "Ġdaraxt": 3812,
      "Ġidi": 3813,
      "Ã¤": 3814,
      "str": 3815,
      "loro": 3816,
      "Ġuslub": 3817,
      "ĠVi": 3818,
      "ĠPar": 3819,
      "ĠNatijada": 3820,
      "Ġeksp": 3821,
      "lanishiga": 3822,
      "sand": 3823,
      "salar": 3824,
      "36": 3825,
      "ĠMav": 3826,
      "Ġbordi": 3827,
      "shik": 3828,
      "Ġbah": 3829,
      "Ġkak": 3830,
      "Ġyut": 3831,
      "Ġbuyur": 3832,
      "stav": 3833,
      "bora": 3834,
      "ani": 3835,
      "Ġfarzand": 3836,
      "Ġrivojlangan": 3837,
      "Ġrav": 3838,
      "Ġtarjima": 3839,
      "Ġï¿½ï¿½ï¿½ï¿½ï¿½ï¿½": 3840,
      "Ġqayer": 3841,
      "Ġoltin": 3842,
      "Ġsafar": 3843,
      "tosh": 3844,
      "100": 3845,
      "ĠĠčĊ": 3846,
      "boshi": 3847,
      "Ġyillik": 3848,
      "Ġlek": 3849,
      "lashtirib": 3850,
      "Ġangla": 3851,
      "GA": 3852,
      "Ġsaqlab": 3853,
      "qobat": 3854,
      "Ġyaratilgan": 3855,
      "parvar": 3856,
      "rag": 3857,
      "ĠAbdulla": 3858,
      "ĠHay": 3859,
      "orida": 3860,
      "ĠOq": 3861,
      "mom": 3862,
      "bri": 3863,
      "Ġyubordi": 3864,
      "Ġmatn": 3865,
      "Me": 3866,
      "lor": 3867,
      "Ġaytish": 3868,
      "Ġumuman": 3869,
      "Ġistiq": 3870,
      "Ġdoir": 3871,
      "Ġsum": 3872,
      "roda": 3873,
      "Ġxotira": 3874,
      "leniya": 3875,
      "Ġmine": 3876,
      "Ġdiff": 3877,
      "Ġburcha": 3878,
      "Ġom": 3879,
      "Ġolishga": 3880,
      "lgach": 3881,
      "Ġnashr": 3882,
      "37": 3883,
      "Ġteri": 3884,
      "Ġyuqorida": 3885,
      "ĠEng": 3886,
      "voq": 3887,
      "Ġsah": 3888,
      "Ġavvalo": 3889,
      "Ġtopshiriq": 3890,
      "dva": 3891,
      "zak": 3892,
      "nes": 3893,
      "Ġbob": 3894,
      "zlarni": 3895,
      "Ġtaqdir": 3896,
      "Ġqismini": 3897,
      "shiy": 3898,
      "Ġtuzish": 3899,
      "Ġmarkaz": 3900,
      "hib": 3901,
      "Ġolmaydi": 3902,
      "Ġetildi": 3903,
      "Ġreji": 3904,
      "Ġnusxa": 3905,
      "dagina": 3906,
      "Ġxay": 3907,
      "poq": 3908,
      "Ġnaf": 3909,
      "Ġyozgan": 3910,
      "Ġbilib": 3911,
      "Ġaylanib": 3912,
      "47": 3913,
      "Ġbil": 3914,
      "ĠTabi": 3915,
      "Ġmuvoza": 3916,
      "vin": 3917,
      "Ġtanqi": 3918,
      "ĠJi": 3919,
      "qillik": 3920,
      "ĠoÊ»": 3921,
      "ĠBal": 3922,
      "Ġprots": 3923,
      "nm": 3924,
      "ngina": 3925,
      "Ġbara": 3926,
      "Ġyov": 3927,
      "kva": 3928,
      "llarini": 3929,
      "IZ": 3930,
      "Ġip": 3931,
      "hir": 3932,
      "Ġsalbiy": 3933,
      "Ġ38": 3934,
      "Ġislo": 3935,
      "Ġtanlash": 3936,
      "Ġxoh": 3937,
      "Ġmasalan": 3938,
      "ll": 3939,
      "Ġturmush": 3940,
      "lanishini": 3941,
      "kali": 3942,
      "lishga": 3943,
      "fir": 3944,
      "lmoqda": 3945,
      "Ġzona": 3946,
      "ĠHamma": 3947,
      "loti": 3948,
      "Ġnay": 3949,
      "ĠUlug": 3950,
      "Mu": 3951,
      "Ġtopib": 3952,
      "Ġunum": 3953,
      "yiq": 3954,
      "Ġqabi": 3955,
      "AY": 3956,
      "Ġyozuvchi": 3957,
      "Ġdin": 3958,
      "OG": 3959,
      "Ġmurojaat": 3960,
      "Ġqizil": 3961,
      "Ġ195": 3962,
      "zish": 3963,
      "dning": 3964,
      "ĠOr": 3965,
      "Ġdok": 3966,
      "voza": 3967,
      "Ġdaqiqa": 3968,
      "Ġturardi": 3969,
      "rita": 3970,
      "ĠKar": 3971,
      "atsiya": 3972,
      "Ġqilar": 3973,
      "Ġegi": 3974,
      "lob": 3975,
      "Ġmuvaffaqi": 3976,
      "Ġkonsent": 3977,
      "Ġdali": 3978,
      "yov": 3979,
      "ob": 3980,
      "nar": 3981,
      "raq": 3982,
      "ĠUch": 3983,
      "rda": 3984,
      "mag": 3985,
      "ES": 3986,
      "Ġovoz": 3987,
      "46": 3988,
      "Ġbunga": 3989,
      "Ġshoh": 3990,
      "Ġxarakteri": 3991,
      "ĠPrezidenti": 3992,
      "Ġyillar": 3993,
      "Ġmaho": 3994,
      "Ġyelka": 3995,
      "NING": 3996,
      "Ġjiho": 3997,
      "Ġbiroq": 3998,
      "xum": 3999,
      "Ġey": 4000,
      "mila": 4001,
      "iqtisodiy": 4002,
      "Ġajratish": 4003,
      "Ġkoor": 4004,
      "gida": 4005,
      "CHI": 4006,
      "ĠĠĠĠĠčĊ": 4007,
      "Ġerdi": 4008,
      "ĠUz": 4009,
      "Ġvah": 4010,
      "quvvat": 4011,
      "Ko": 4012,
      "Ġdemok": 4013,
      "............": 4014,
      "gim": 4015,
      "Ġalla": 4016,
      "Ġhokazo": 4017,
      "Ġintegra": 4018,
      "Ġzahar": 4019,
      "ĠUnda": 4020,
      "Ġkelayotgan": 4021,
      "Ġhissa": 4022,
      "Ġoa": 4023,
      "Ġatom": 4024,
      "Ġasarlar": 4025,
      "Ġberadigan": 4026,
      "Ġjamoat": 4027,
      "ĠJu": 4028,
      "ziz": 4029,
      "ĠShundan": 4030,
      "ĠPi": 4031,
      "Ġikkala": 4032,
      "nosi": 4033,
      "Ġurush": 4034,
      "Ġbozo": 4035,
      "Ġuzluksiz": 4036,
      "Ġyurib": 4037,
      "pan": 4038,
      "Ġaynan": 4039,
      "Ġhurmat": 4040,
      "nalti": 4041,
      "Ġbirov": 4042,
      "Ġjamiyati": 4043,
      "Ġorganlari": 4044,
      "Ġ37": 4045,
      "Ġgaze": 4046,
      "tiqo": 4047,
      "Ġtizimini": 4048,
      "Ġomillar": 4049,
      "Ġolma": 4050,
      "Ġion": 4051,
      "ladilar": 4052,
      "fiya": 4053,
      "Ġfoydalanib": 4054,
      "Ġhosi": 4055,
      "Ġqurilish": 4056,
      "Ġinstitu": 4057,
      "lamoq": 4058,
      "lsak": 4059,
      "zmi": 4060,
      "ĠboÊ»": 4061,
      "Ġsifati": 4062,
      "Ġbari": 4063,
      "Ġoxirgi": 4064,
      "Ġmilli": 4065,
      "ĠAhmad": 4066,
      "Ġchop": 4067,
      "bol": 4068,
      "Ġqilinishi": 4069,
      "Ġqirg": 4070,
      "Ã¥": 4071,
      "Ġboshini": 4072,
      "Ġayta": 4073,
      "Ġtarkibiga": 4074,
      "Ġtun": 4075,
      "Ġlug": 4076,
      "Ġqurish": 4077,
      "Ġyuzasidan": 4078,
      "Ġtutib": 4079,
      "xil": 4080,
      "sizmi": 4081,
      "Ġquyosh": 4082,
      "38": 4083,
      "ĠAli": 4084,
      "Ġdeganda": 4085,
      "ttifo": 4086,
      "ensiya": 4087,
      "Ġton": 4088,
      "lchash": 4089,
      "32": 4090,
      "yotganini": 4091,
      "ding": 4092,
      "struksiya": 4093,
      "Qo": 4094,
      "jab": 4095,
      "chil": 4096,
      "nash": 4097,
      "âĢī": 4098,
      "ĠMusta": 4099,
      "Ġyadro": 4100,
      "Ġvazifasi": 4101,
      "tet": 4102,
      "Ġnu": 4103,
      "lumotlarni": 4104,
      "Ġtomo": 4105,
      "Ġseni": 4106,
      "Ġjuft": 4107,
      "noda": 4108,
      "Ġfalsafa": 4109,
      "Ġnarx": 4110,
      "ningiz": 4111,
      "Ġ55": 4112,
      "ralle": 4113,
      "ĠOna": 4114,
      "Ġdemak": 4115,
      "kash": 4116,
      "piya": 4117,
      "Ġmusul": 4118,
      "yatli": 4119,
      "ĠKor": 4120,
      "Ġje": 4121,
      "ret": 4122,
      "lashtiradi": 4123,
      "ĠGi": 4124,
      "Ġ42": 4125,
      "Ġtushuni": 4126,
      "mm": 4127,
      "ĠBuni": 4128,
      "Ġtomir": 4129,
      "Ġze": 4130,
      "let": 4131,
      "zov": 4132,
      "Ġxul": 4133,
      "Ġtish": 4134,
      "AK": 4135,
      "ildi": 4136,
      "Ġimkonini": 4137,
      "Ġsev": 4138,
      "Ġmaslahat": 4139,
      "Ġvarian": 4140,
      "Ġruxsat": 4141,
      "Ġanali": 4142,
      "shunoslik": 4143,
      "lip": 4144,
      "Ġilti": 4145,
      "Ġmuoma": 4146,
      "Ġoyog": 4147,
      "merika": 4148,
      "Ġtaraqqiyot": 4149,
      "Ġtuza": 4150,
      "Ġdevo": 4151,
      "Ġkeltirish": 4152,
      "raman": 4153,
      "Ġkuzatish": 4154,
      "zrat": 4155,
      "chish": 4156,
      "Ġindivi": 4157,
      "Ġshundan": 4158,
      "lch": 4159,
      "Ġqadimgi": 4160,
      "ĠElekt": 4161,
      "ĠMirzo": 4162,
      "Ġuchta": 4163,
      "zara": 4164,
      "Ġkva": 4165,
      "Ġxotini": 4166,
      "nis": 4167,
      "Ġhukmron": 4168,
      "Ġketib": 4169,
      "Ġkirgan": 4170,
      "Ġtiz": 4171,
      "bro": 4172,
      "ck": 4173,
      "ĠAlisher": 4174,
      "Ġoraliq": 4175,
      "Ġzaru": 4176,
      "Ġtaqdim": 4177,
      "Ġgan": 4178,
      "Ġmuallif": 4179,
      "vati": 4180,
      "rayotgan": 4181,
      "Ġbaliq": 4182,
      "matini": 4183,
      "Ġdavlati": 4184,
      "Ġturkiy": 4185,
      "ĠAda": 4186,
      "latib": 4187,
      "oyat": 4188,
      "ĠRi": 4189,
      "bari": 4190,
      "Ġmutla": 4191,
      "tiladigan": 4192,
      "lav": 4193,
      "Ġasrning": 4194,
      "tat": 4195,
      "Ġpor": 4196,
      "05": 4197,
      "qarshi": 4198,
      "sincha": 4199,
      "Ġchasto": 4200,
      "Ġqilishda": 4201,
      "alla": 4202,
      "Ġnafaqat": 4203,
      "rir": 4204,
      "Ġmazmun": 4205,
      "Ġulu": 4206,
      "bli": 4207,
      "Ġdiqqat": 4208,
      "Ġbelgilab": 4209,
      "Ġsharoitida": 4210,
      "tari": 4211,
      "joy": 4212,
      "Ġrangi": 4213,
      "Ġpan": 4214,
      "jtimoiy": 4215,
      "mud": 4216,
      "Ġishlov": 4217,
      "ĠUzbeki": 4218,
      "ĠOlim": 4219,
      "Ġmafku": 4220,
      "gon": 4221,
      "Ġ#": 4222,
      "rinda": 4223,
      "Ġgapir": 4224,
      "Ġtarkibiy": 4225,
      "Ġtariqa": 4226,
      "Ġoldini": 4227,
      "biri": 4228,
      "yur": 4229,
      "ĠUl": 4230,
      "sidir": 4231,
      "Ġsoch": 4232,
      "Ġadolat": 4233,
      "Ġmunosabatlar": 4234,
      "Ġyugu": 4235,
      "Ġharaka": 4236,
      "Ġqilmoq": 4237,
      "ĠIslom": 4238,
      "Ġbildiradi": 4239,
      "ĠGar": 4240,
      "Ġrez": 4241,
      "Ġmoy": 4242,
      "dini": 4243,
      "Ġtuzilma": 4244,
      "Siz": 4245,
      "Ġhokimiyat": 4246,
      "ĠĠĠĠĠĠĠĠĠ": 4247,
      "Ġxorij": 4248,
      "Ġumr": 4249,
      "Ġï¿½ï¿½ï¿½ï¿½ï¿½": 4250,
      "res": 4251,
      "Ġep": 4252,
      "Ġmunosabati": 4253,
      "Ġtola": 4254,
      "Ġtasvi": 4255,
      "minan": 4256,
      "tinchi": 4257,
      "Ġrek": 4258,
      "gramma": 4259,
      "menti": 4260,
      "rol": 4261,
      "Ġekanini": 4262,
      "Ġinvestitsiya": 4263,
      "Ġusto": 4264,
      "Ġbirdan": 4265,
      "ĠGer": 4266,
      "Ġchoy": 4267,
      "Ġraqobat": 4268,
      "Ġfaza": 4269,
      "kalar": 4270,
      "taraf": 4271,
      "eno": 4272,
      "Ġbugun": 4273,
      "ĠJan": 4274,
      "lova": 4275,
      "Ġchidam": 4276,
      "Ġmusulmon": 4277,
      "Ġkoeffitsiy": 4278,
      "Ġqaramay": 4279,
      "ĠKarimov": 4280,
      "Ġstrate": 4281,
      "ĠYuqori": 4282,
      "ĠShunda": 4283,
      "zlashtirish": 4284,
      "ĠĠĠĠĠĠčĊ": 4285,
      "Ġruhiy": 4286,
      "Ġhad": 4287,
      "Ġmulohaza": 4288,
      "Ġqarama": 4289,
      "Ġodat": 4290,
      "Ġkash": 4291,
      "Ġchin": 4292,
      "Ġshubha": 4293,
      "ĠQan": 4294,
      "lchov": 4295,
      "Ġkompaniya": 4296,
      "ming": 4297,
      "tani": 4298,
      "Ġdoimo": 4299,
      "Ġmuso": 4300,
      "Ġmuddat": 4301,
      "Ġsubyekt": 4302,
      "Ġoksid": 4303,
      "vet": 4304,
      "Ġ48": 4305,
      "burchak": 4306,
      "tibo": 4307,
      "Ġkiyim": 4308,
      "ĠMos": 4309,
      "fan": 4310,
      "Ġnas": 4311,
      "Ġnerv": 4312,
      "ĠRespublikasining": 4313,
      "Ġbobo": 4314,
      "Ġari": 4315,
      "Ġuyush": 4316,
      "Ġetilishi": 4317,
      "Ġoluvchi": 4318,
      "oda": 4319,
      "yt": 4320,
      "Ġyax": 4321,
      "sangiz": 4322,
      "Ġboshlagan": 4323,
      "op": 4324,
      "amet": 4325,
      "ĠSov": 4326,
      "ldim": 4327,
      "):": 4328,
      "Ġ32": 4329,
      "Ġzul": 4330,
      "lidagi": 4331,
      "49": 4332,
      "Ġegri": 4333,
      "Ġqilishni": 4334,
      "Ġasarlari": 4335,
      "nix": 4336,
      "Ġï¿½ï¿½ï¿½ï¿½ï¿½ï¿½ï¿½": 4337,
      "Ġtadqiqo": 4338,
      "gun": 4339,
      "Ġmon": 4340,
      "Ġsun": 4341,
      "Ġyillarda": 4342,
      "yul": 4343,
      "Ġmax": 4344,
      "nati": 4345,
      "Ġinsonning": 4346,
      "dorod": 4347,
      "lardir": 4348,
      "Ġpere": 4349,
      "Ġtashvi": 4350,
      "Ġqola": 4351,
      "Ġkay": 4352,
      "Ġqaradi": 4353,
      "plami": 4354,
      "daydir": 4355,
      "Ġ$": 4356,
      "fil": 4357,
      "Ġeto": 4358,
      "âĢĺâĢľ": 4359,
      "Ġbirlik": 4360,
      "kamma": 4361,
      "Ġaytganda": 4362,
      "ĠïĤ": 4363,
      "qida": 4364,
      "Ġnorma": 4365,
      "65": 4366,
      "Ġturdi": 4367,
      "net": 4368,
      "Ġdona": 4369,
      "Ġbajar": 4370,
      "Ġshamol": 4371,
      "Ġmexanizm": 4372,
      "ĠOg": 4373,
      "ĠDast": 4374,
      "Ġhafta": 4375,
      "ĠâĢ¢": 4376,
      "Ġrasmiy": 4377,
      "Ġnomli": 4378,
      "Ġnuqtayi": 4379,
      "Ġaniqlangan": 4380,
      "Ġbaro": 4381,
      "bog": 4382,
      "OB": 4383,
      "vol": 4384,
      "ĠBobur": 4385,
      "Ġkeyinchalik": 4386,
      "skoy": 4387,
      "tayotgan": 4388,
      "ĠShe": 4389,
      "Ġoladigan": 4390,
      "Ġetishga": 4391,
      "pak": 4392,
      "Ġbyud": 4393,
      "Ġtip": 4394,
      "Ġavvalgi": 4395,
      "Ġturdagi": 4396,
      "Ġbutunlay": 4397,
      "lmayman": 4398,
      "essor": 4399,
      "Ġquvvat": 4400,
      "Ġinqi": 4401,
      "Ġmajburiyat": 4402,
      "Ġdarajasini": 4403,
      "Ġmutaxassis": 4404,
      "ĠFran": 4405,
      "Ġdarajasiga": 4406,
      "ĠïĢŃ": 4407,
      "vand": 4408,
      "Ġtebra": 4409,
      "Ġem": 4410,
      "Ġmuh": 4411,
      "chilarning": 4412,
      "âĢĹ": 4413,
      "nglar": 4414,
      "Ġkirishi": 4415,
      "yun": 4416,
      "OQ": 4417,
      "Ġfazi": 4418,
      "tlarni": 4419,
      "Ġtakomillashtirish": 4420,
      "?Â»": 4421,
      "ĠZo": 4422,
      "laring": 4423,
      "Ġjins": 4424,
      "Ġib": 4425,
      "ĠSay": 4426,
      "Ġyoqi": 4427,
      "Ġqanchalik": 4428,
      "Ġishq": 4429,
      "Ġqum": 4430,
      "dori": 4431,
      "moli": 4432,
      "Ġtru": 4433,
      "Xo": 4434,
      "Ġnavbatida": 4435,
      "Ġmolekula": 4436,
      "stitutsiya": 4437,
      "Ġbekor": 4438,
      "tabi": 4439,
      "Ġyozish": 4440,
      "gov": 4441,
      "Ġhujum": 4442,
      "oa": 4443,
      "Ġux": 4444,
      "Ġqadr": 4445,
      "Ġvse": 4446,
      "drok": 4447,
      "Ġpesh": 4448,
      "ÅĪ": 4449,
      "yoki": 4450,
      "Ġaylanadi": 4451,
      "Ġtransport": 4452,
      "mayman": 4453,
      "Ġvazifasini": 4454,
      "Ġjihatidan": 4455,
      "ĠUy": 4456,
      "ĠEy": 4457,
      "Ġpastki": 4458,
      "layman": 4459,
      "Ġdaf": 4460,
      "Ġularda": 4461,
      "SSR": 4462,
      "Ġmuqa": 4463,
      "tilmagan": 4464,
      "chini": 4465,
      "Ġqolishi": 4466,
      "Ġisi": 4467,
      "âĢĺ.": 4468,
      "rizon": 4469,
      "OY": 4470,
      "Ã®Ã": 4471,
      "llanma": 4472,
      "Ġxolos": 4473,
      "Ġok": 4474,
      "lashdi": 4475,
      "lmoq": 4476,
      "dga": 4477,
      "misha": 4478,
      "lla": 4479,
      "arb": 4480,
      "ulyar": 4481,
      "Ġguno": 4482,
      "qur": 4483,
      "ego": 4484,
      "Ġisho": 4485,
      "ĠYaxshi": 4486,
      "Ġfaoliyatining": 4487,
      "zlarining": 4488,
      "Ġtexnologik": 4489,
      "Ġqoro": 4490,
      "sus": 4491,
      "ĠVatan": 4492,
      "Ġturlicha": 4493,
      "ĠïĢ«": 4494,
      "Ġtartibda": 4495,
      "uqu": 4496,
      "Ġboshiga": 4497,
      "Ġahli": 4498,
      "ĠFe": 4499,
      "masdi": 4500,
      "Ġisloho": 4501,
      "port": 4502,
      "Ã¼": 4503,
      "tubxona": 4504,
      "rus": 4505,
      "chaga": 4506,
      "ruvchi": 4507,
      "Ġulkan": 4508,
      "AH": 4509,
      "ĠAsosiy": 4510,
      "Ġugle": 4511,
      "yxat": 4512,
      "lganida": 4513,
      "Ġyashash": 4514,
      "ĠXitoy": 4515,
      "ax": 4516,
      "Ġnihoyatda": 4517,
      "Ġaylana": 4518,
      "kogo": 4519,
      "Ġpodsho": 4520,
      "Ġturishi": 4521,
      "Ġtafakkur": 4522,
      "ĠMilliy": 4523,
      "ww": 4524,
      "Ġparalle": 4525,
      "Ġsiyosat": 4526,
      "midi": 4527,
      "shining": 4528,
      "Ġtaraqqiyoti": 4529,
      "Ġuniversi": 4530,
      "Ġgum": 4531,
      "Ġ31": 4532,
      "lmasdan": 4533,
      "bag": 4534,
      "Ġbio": 4535,
      "Ġidora": 4536,
      "Ġqilamiz": 4537,
      "Ġishlarni": 4538,
      "ovqat": 4539,
      "01": 4540,
      "liklarni": 4541,
      "lsam": 4542,
      "ĠQish": 4543,
      "ylar": 4544,
      "39": 4545,
      "Ġchiro": 4546,
      "Ġsano": 4547,
      "Ġsilji": 4548,
      "ĠQar": 4549,
      "Ġyerdan": 4550,
      "Ġrozi": 4551,
      "Ġhisoblangan": 4552,
      "Ġaytdi": 4553,
      "Ġsuyak": 4554,
      "masiga": 4555,
      "ĠĠĠĠĠĠĠčĊ": 4556,
      "Ġmln": 4557,
      "minlaydi": 4558,
      "Ġadi": 4559,
      "qadi": 4560,
      "skari": 4561,
      "Ġmus": 4562,
      "tam": 4563,
      "ĠBoy": 4564,
      "Ġsizga": 4565,
      "Ġoqibat": 4566,
      "Ġmaydoni": 4567,
      "Ġrioya": 4568,
      "ĠBor": 4569,
      "ser": 4570,
      "Ġyakka": 4571,
      "Ġmono": 4572,
      "stin": 4573,
      "Ġshox": 4574,
      "ratik": 4575,
      "sodi": 4576,
      "masin": 4577,
      "Ġchang": 4578,
      "suv": 4579,
      "Ġoralig": 4580,
      "kitob": 4581,
      "Ġpaytida": 4582,
      "Ġteg": 4583,
      "Ġ?": 4584,
      "Ġtub": 4585,
      "Ġbugungi": 4586,
      "ĠFo": 4587,
      "Ġting": 4588,
      "Ġoyi": 4589,
      "rator": 4590,
      "tog": 4591,
      "dual": 4592,
      "indiston": 4593,
      "Ra": 4594,
      "OD": 4595,
      "ila": 4596,
      "ĠSar": 4597,
      "Ġmamlakati": 4598,
      "asi": 4599,
      "lganidan": 4600,
      "Ġmasalalar": 4601,
      "qt": 4602,
      "nn": 4603,
      "sik": 4604,
      "luvchi": 4605,
      "ĠĠĠĠĠĠĠĠĠĠĠĠĠ": 4606,
      "sga": 4607,
      "Ġboshlanadi": 4608,
      "Ġtutadi": 4609,
      "âĢĺ,": 4610,
      "Ġ39": 4611,
      "Ġport": 4612,
      "Ġsharoitda": 4613,
      "Ġoqsil": 4614,
      "ĠAQSH": 4615,
      "rnidan": 4616,
      "rsatma": 4617,
      "Ġkompon": 4618,
      "Ġmarkaziy": 4619,
      "Ġ46": 4620,
      "Ġuzi": 4621,
      "85": 4622,
      "Ġqandaydir": 4623,
      "Ġshakllari": 4624,
      "Ġvako": 4625,
      "zlarning": 4626,
      "tkazilgan": 4627,
      "ĠMis": 4628,
      "xshab": 4629,
      "ĠFan": 4630,
      "lmasin": 4631,
      "Ġrol": 4632,
      "tlarning": 4633,
      "Ġmeta": 4634,
      "shsh": 4635,
      "Ġbartaraf": 4636,
      "ĠMak": 4637,
      "lashishi": 4638,
      "masini": 4639,
      "Ġortiqcha": 4640,
      "yob": 4641,
      "Ġmuvozanat": 4642,
      "Ã¨Ã": 4643,
      "ĠKatta": 4644,
      "voh": 4645,
      "ĠXI": 4646,
      "Ġkompyuter": 4647,
      "ĠSan": 4648,
      "bos": 4649,
      "cheskoy": 4650,
      "tkaziladi": 4651,
      "Ġjim": 4652,
      "simo": 4653,
      "lashning": 4654,
      "kida": 4655,
      "Ġeritmasi": 4656,
      "matika": 4657,
      "chalari": 4658,
      "Ġmuhabbat": 4659,
      "Ġvektor": 4660,
      "Ġsotish": 4661,
      "ikki": 4662,
      "ĠTO": 4663,
      "xat": 4664,
      "Ġyuzi": 4665,
      "31": 4666,
      "doy": 4667,
      "Ġxususiyati": 4668,
      "04": 4669,
      "Ġislom": 4670,
      "jam": 4671,
      "diri": 4672,
      "Ġlim": 4673,
      "Ġ47": 4674,
      "Ġxavfsiz": 4675,
      "yillarda": 4676,
      "Ġreal": 4677,
      "34": 4678,
      "Ġqiyofa": 4679,
      "ET": 4680,
      "dob": 4681,
      "Ġhuzu": 4682,
      "mit": 4683,
      "Ġchizig": 4684,
      "Ġyutuq": 4685,
      "Ġdil": 4686,
      "Ġqiziq": 4687,
      "Ġruhi": 4688,
      "Ġgru": 4689,
      "Ġkoordina": 4690,
      "Ġaql": 4691,
      "fini": 4692,
      "Ġdir": 4693,
      "ble": 4694,
      "Ġnazariyasi": 4695,
      "stra": 4696,
      "Ġï¿½ï¿½ï¿½ï¿½ï¿½ï¿½ï¿½ï¿½ï¿½ï¿½ï¿½ï¿½ï¿½ï¿½ï¿½ï¿½ï¿½ï¿½ï¿½ï¿½ï¿½ï¿½ï¿½ï¿½ï¿½ï¿½ï¿½ï¿½ï¿½ï¿½ï¿½ï¿½": 4697,
      "Ġyuridik": 4698,
      "Ġkirdi": 4699,
      "ĠErta": 4700,
      "Ġtomosha": 4701,
      "sekin": 4702,
      "Ġaudi": 4703,
      "Ġkrista": 4704,
      "ĠBular": 4705,
      "Ġsistemasi": 4706,
      "Ġdiamet": 4707,
      "Ġuyqu": 4708,
      "Ġavtomo": 4709,
      "kammal": 4710,
      "GAN": 4711,
      "Ġ2000": 4712,
      "Ġeks": 4713,
      "Ġsiy": 4714,
      "xsh": 4715,
      "eksiya": 4716,
      "ĠNega": 4717,
      "Ġepi": 4718,
      "Ġyoshi": 4719,
      "Ġayi": 4720,
      "Ġmor": 4721,
      "ĠTan": 4722,
      "zli": 4723,
      "limga": 4724,
      "Ġbelgilari": 4725,
      "Ġfoydali": 4726,
      "zolari": 4727,
      "Ġmobay": 4728,
      "Ġtarkibidagi": 4729,
      "Ġmineral": 4730,
      "Ġekologik": 4731,
      "Ġjarayonini": 4732,
      "Ġzaxi": 4733,
      "tamiz": 4734,
      "Ġgorizon": 4735,
      "tirishi": 4736,
      "bdi": 4737,
      "yos": 4738,
      "Ġruh": 4739,
      "rem": 4740,
      "Ġcon": 4741,
      "!Â»": 4742,
      "Ġkompleks": 4743,
      "Ġtra": 4744,
      "veradi": 4745,
      "qos": 4746,
      "sis": 4747,
      "ez": 4748,
      "enga": 4749,
      "ps": 4750,
      "Ġteskari": 4751,
      "ik": 4752,
      "lansa": 4753,
      "smon": 4754,
      "IT": 4755,
      "Ġasoslari": 4756,
      "Ġkerakli": 4757,
      "Ġchiziqli": 4758,
      "niyu": 4759,
      "Ġhayo": 4760,
      "Ġqonuni": 4761,
      "zimni": 4762,
      "Ġsirt": 4763,
      "Al": 4764,
      "ubiy": 4765,
      "Ġmuz": 4766,
      "limni": 4767,
      "AZ": 4768,
      "lolat": 4769,
      "Ġkutubxona": 4770,
      "Ġmahsulotlari": 4771,
      "ct": 4772,
      "Ġnechta": 4773,
      "ĠUnga": 4774,
      "Ġbuz": 4775,
      "ssiv": 4776,
      "lararo": 4777,
      "ruza": 4778,
      "olo": 4779,
      "nam": 4780,
      "biridan": 4781,
      "Ġtopadi": 4782,
      "organi": 4783,
      "Ġuchast": 4784,
      "Ġqiling": 4785,
      "Ġia": 4786,
      "ngliz": 4787,
      "ifa": 4788,
      "Ġdastu": 4789,
      "Ġmateriallar": 4790,
      "ĠMehnat": 4791,
      "Ġqilayotgan": 4792,
      "ĠThe": 4793,
      "Ġichak": 4794,
      "Ġumid": 4795,
      "Ġyash": 4796,
      "ddas": 4797,
      "Ġxatti": 4798,
      "Ġshahri": 4799,
      "stro": 4800,
      "raza": 4801,
      "tash": 4802,
      "laning": 4803,
      "Ġod": 4804,
      "Ġ41": 4805,
      "ok": 4806,
      "nosini": 4807,
      "cheskix": 4808,
      "nayotgan": 4809,
      "Ġkishining": 4810,
      "Ġqano": 4811,
      "zna": 4812,
      "moliy": 4813,
      "Ġtutgan": 4814,
      "Ġyonida": 4815,
      "Ġmanti": 4816,
      "ĠTer": 4817,
      "Ġharf": 4818,
      "em": 4819,
      "Ġoshiradi": 4820,
      "Ġanti": 4821,
      "Ġpotensi": 4822,
      "stu": 4823,
      "af": 4824,
      "Ġishlarini": 4825,
      "Ġodamning": 4826,
      "Ġdog": 4827,
      "97": 4828,
      "sizlar": 4829,
      "Ġide": 4830,
      "Ġulg": 4831,
      "âĢĿ.": 4832,
      "fikatsiya": 4833,
      "duk": 4834,
      "yem": 4835,
      "Ġnashri": 4836,
      "ĠTosh": 4837,
      "qqol": 4838,
      "Ġdoston": 4839,
      "Ġyurt": 4840,
      "Ġmobaynida": 4841,
      "ten": 4842,
      "ney": 4843,
      "Ġiflos": 4844,
      "rnatilgan": 4845,
      "Ġtarkib": 4846,
      "lovi": 4847,
      "Ġerga": 4848,
      "yasi": 4849,
      "Ġzanjir": 4850,
      "rifat": 4851,
      "Ġmagnit": 4852,
      "ÅŁ": 4853,
      "Ġyetti": 4854,
      "Ġbirlash": 4855,
      "\"\"": 4856,
      "ĠShuni": 4857,
      "Ġixtiyoriy": 4858,
      "Ġoshib": 4859,
      "Ġbinoan": 4860,
      "Ġerkak": 4861,
      "kaning": 4862,
      "Ġkutib": 4863,
      "davlat": 4864,
      "if": 4865,
      "skogo": 4866,
      "lashtiriladi": 4867,
      "tarbiya": 4868,
      "xtiyor": 4869,
      "Ġshundaki": 4870,
      "zlariga": 4871,
      "yaga": 4872,
      "sor": 4873,
      "pov": 4874,
      "Ġtasni": 4875,
      "Ġdoirasida": 4876,
      "Ġuchrash": 4877,
      "tadbir": 4878,
      "lantiruvchi": 4879,
      "Ġaro": 4880,
      "ĠYusu": 4881,
      "arbiy": 4882,
      "Toshkent": 4883,
      "Ġgoh": 4884,
      "ĠBarcha": 4885,
      "Ġkiritilgan": 4886,
      "Ġyondash": 4887,
      "Ġajoyib": 4888,
      "Ġ75": 4889,
      "Ġaxloqiy": 4890,
      "Ġbahor": 4891,
      "pil": 4892,
      "dirib": 4893,
      "rnini": 4894,
      "zina": 4895,
      "Ġmafkura": 4896,
      "Ġharorati": 4897,
      "Ġfunksi": 4898,
      "voz": 4899,
      "Ġfazilat": 4900,
      "Ġdiffer": 4901,
      "ĠEl": 4902,
      "Ġtayyorlangan": 4903,
      "rede": 4904,
      "Ġtemperatura": 4905,
      "laylik": 4906,
      "Ġsof": 4907,
      "Ġamaliyot": 4908,
      "Ġqalam": 4909,
      "Ġsut": 4910,
      "Ġtezlik": 4911,
      "vaniye": 4912,
      "Ġkapital": 4913,
      "midan": 4914,
      "jorat": 4915,
      "AS": 4916,
      "Ġholatini": 4917,
      "muncha": 4918,
      "Ġhokimiyati": 4919,
      "Ġtuxum": 4920,
      "ĠShunga": 4921,
      "rlik": 4922,
      "ĠOda": 4923,
      "Ġduch": 4924,
      "Ġichka": 4925,
      "mang": 4926,
      "Ġsovet": 4927,
      "Ġuzatish": 4928,
      "Ġilg": 4929,
      "tiyot": 4930,
      "gidan": 4931,
      "Ġbarpo": 4932,
      "Ġdunyoda": 4933,
      "kama": 4934,
      "zallik": 4935,
      "nikma": 4936,
      "guncha": 4937,
      "ĠĠĠĠĠĠĠĠĠĠĠĠĠĠĠĠĠĠĠĠĠĠĠĠĠĠĠĠĠĠĠĠĠĠĠĠĠĠĠĠĠĠĠĠĠĠĠĠĠĠĠĠĠĠĠĠĠĠĠĠĠĠĠĠ": 4938,
      "umladan": 4939,
      "Ġbajarilishi": 4940,
      "Ġmush": 4941,
      "Ġsurat": 4942,
      "Ġkesim": 4943,
      "Ġhamkor": 4944,
      "mosfera": 4945,
      "98": 4946,
      "Ġhayda": 4947,
      "Ġdala": 4948,
      "Ġurib": 4949,
      "Ġqush": 4950,
      "izi": 4951,
      "Ġyaratgan": 4952,
      "Ġ44": 4953,
      "Ġbak": 4954,
      "nomasi": 4955,
      "ĠYor": 4956,
      "skul": 4957,
      "Ġï¿½ï¿½ï¿½ï¿½ï¿½ï¿½ï¿½ï¿½ï¿½ï¿½ï¿½ï¿½": 4958,
      "Ġxususiyatlarini": 4959,
      "isi": 4960,
      "yutsya": 4961,
      "Ġsuyuqlik": 4962,
      "Ġtoping": 4963,
      "yer": 4964,
      "ĠDunyo": 4965,
      "Ġlash": 4966,
      "Ġuzat": 4967,
      "Ġorganik": 4968,
      "Ġbirikma": 4969,
      "Ġyaxlit": 4970,
      "Ġxarajatlar": 4971,
      "atto": 4972,
      "Ġborayotgan": 4973,
      "Ġrag": 4974,
      "Ġtrans": 4975,
      "Ġaylanish": 4976,
      "Ġqarang": 4977,
      "Ġoldindan": 4978,
      "Ġbarmoq": 4979,
      "Ġï¿½ï¿½ï¿½": 4980,
      "iston": 4981,
      "ĠSir": 4982,
      "zaki": 4983,
      "sning": 4984,
      "uvchanlik": 4985,
      "Ġgr": 4986,
      "Ġvositalar": 4987,
      "ĠZar": 4988,
      "ĠXuddi": 4989,
      "ĠHindiston": 4990,
      "Ġqonuniyat": 4991,
      "OS": 4992,
      "Ġbelgilash": 4993,
      "Ġkonsentratsiya": 4994,
      "Ġhaqda": 4995,
      "Ġyodgor": 4996,
      "Ġteat": 4997,
      "hifa": 4998,
      "Ġshakllanishi": 4999,
      "Ġbaza": 5000,
      "Ġarxi": 5001,
      "94": 5002,
      "Ġoli": 5003,
      "Ġqatorda": 5004,
      "Â£": 5005,
      "Ġfazo": 5006,
      "Ġtopo": 5007,
      "Ġmuskul": 5008,
      "Ġtal": 5009,
      "chiga": 5010,
      "Ġyashagan": 5011,
      "Ġdina": 5012,
      "struk": 5013,
      "rinishda": 5014,
      "Ġyildan": 5015,
      "mashyo": 5016,
      "ĠBunga": 5017,
      "Ġxar": 5018,
      "Ġvazifalari": 5019,
      "dasi": 5020,
      "Ġbud": 5021,
      "sanmi": 5022,
      "zgarmas": 5023,
      "78": 5024,
      "Ġqorin": 5025,
      "Ġeshit": 5026,
      "ren": 5027,
      "Ġshirin": 5028,
      "Ġbalo": 5029,
      "Ġsvo": 5030,
      "figa": 5031,
      "Ġjarayonlar": 5032,
      "Ġini": 5033,
      "mali": 5034,
      "Ġhamisha": 5035,
      "Ġvoqe": 5036,
      "Ġtushunchasi": 5037,
      "Ġyaqqol": 5038,
      "So": 5039,
      "jiz": 5040,
      "yxa": 5041,
      "Pa": 5042,
      "ep": 5043,
      "hmat": 5044,
      "Ġusulda": 5045,
      "ĠSO": 5046,
      "Ġaytiladi": 5047,
      "Ġjam": 5048,
      "anaviy": 5049,
      "tirishga": 5050,
      "Ġyoniga": 5051,
      "Ġkerakki": 5052,
      "Ġbajaradi": 5053,
      "Ġac": 5054,
      "Ġbirligi": 5055,
      "Ġifodalaydi": 5056,
      "Ġ34": 5057,
      "AB": 5058,
      "Ġyoni": 5059,
      "âĢĻ-": 5060,
      "ĠMU": 5061,
      "Ġshaxsning": 5062,
      "ĠQiz": 5063,
      "Ġhayotiy": 5064,
      "zingiz": 5065,
      "rtoq": 5066,
      "!!": 5067,
      "Ġunu": 5068,
      "Ġshisha": 5069,
      "ova": 5070,
      "toz": 5071,
      "urug": 5072,
      "ĠShoh": 5073,
      "dom": 5074,
      "Ġchaq": 5075,
      "eri": 5076,
      "kum": 5077,
      "Ġqavat": 5078,
      "Ġtre": 5079,
      "uniy": 5080,
      "ĠAyniqsa": 5081,
      "Ġqov": 5082,
      "ĠAndi": 5083,
      "Ġnormal": 5084,
      "Ġmahkam": 5085,
      "Ġkelin": 5086,
      "âĢ¦âĢ¦âĢ¦âĢ¦": 5087,
      "rani": 5088,
      "Ġtadqiq": 5089,
      "yini": 5090,
      "Ġnoma": 5091,
      "ĠHusa": 5092,
      "rsatgan": 5093,
      "Ġurin": 5094,
      "Ġmukammal": 5095,
      "ĠMoskva": 5096,
      "Ġdalolat": 5097,
      "Ġqas": 5098,
      "Ġtutilgan": 5099,
      "Ġhujjatlar": 5100,
      "Ġproyek": 5101,
      "Ġjoyga": 5102,
      "Ġani": 5103,
      "Ġxizmati": 5104,
      "tiy": 5105,
      "Ġkamchilik": 5106,
      "diga": 5107,
      "sishi": 5108,
      "Ġidrok": 5109,
      "Ġtag": 5110,
      "ĠHech": 5111,
      "ladim": 5112,
      "Ġkisloro": 5113,
      "ĠBur": 5114,
      "keting": 5115,
      "yapman": 5116,
      "Ġvakillari": 5117,
      "ĠAxir": 5118,
      "Ġmaqola": 5119,
      "Ġsado": 5120,
      "Ġolimlar": 5121,
      "ishlangan": 5122,
      "lmasdi": 5123,
      "Ġyuritish": 5124,
      "RI": 5125,
      "Ġsening": 5126,
      "ĠIbn": 5127,
      "Ġxursand": 5128,
      "dli": 5129,
      "ĠJahon": 5130,
      "xud": 5131,
      "Ġgapni": 5132,
      "ĠShoir": 5133,
      "Ġsing": 5134,
      "tay": 5135,
      "Ġ<": 5136,
      "xgal": 5137,
      "Ġpsixologik": 5138,
      "Ġqoch": 5139,
      "Ġpra": 5140,
      "sona": 5141,
      "Ġhalqa": 5142,
      "Ġvodiy": 5143,
      "Ġoo": 5144,
      "liklarini": 5145,
      "Ġqada": 5146,
      "Ġhukumat": 5147,
      "Ġkonstruksiya": 5148,
      "Ġtalqin": 5149,
      "naga": 5150,
      "rsatdi": 5151,
      "âĢĻ,": 5152,
      "cal": 5153,
      "dorlar": 5154,
      "lamasi": 5155,
      "Ġnimani": 5156,
      "Ġsch": 5157,
      "ĠAmerika": 5158,
      "tse": 5159,
      "dorligi": 5160,
      "Ġmini": 5161,
      "Qa": 5162,
      "rgatish": 5163,
      "ĠMas": 5164,
      "drat": 5165,
      "krak": 5166,
      "Ġato": 5167,
      "Ġmetall": 5168,
      "ĠUn": 5169,
      "Ġgavda": 5170,
      "Ġmavjudligi": 5171,
      "Ġroman": 5172,
      "Ġyetkazib": 5173,
      "ner": 5174,
      "Ġvatan": 5175,
      "ĠTad": 5176,
      "Ġifodalanadi": 5177,
      "ĠYuqorida": 5178,
      "Ġxususan": 5179,
      "Ġshay": 5180,
      "Ġpredmet": 5181,
      "Ġfos": 5182,
      "Ġyego": 5183,
      "72": 5184,
      "ĠAA": 5185,
      "lsang": 5186,
      "ĠMamla": 5187,
      "ig": 5188,
      "ndalang": 5189,
      "lasa": 5190,
      "Ġhunar": 5191,
      "stetik": 5192,
      "qiqat": 5193,
      "Ġkredit": 5194,
      "ĠQuyosh": 5195,
      "ada": 5196,
      "Ġklassi": 5197,
      "Ġort": 5198,
      "Ġmur": 5199,
      "Ġbegona": 5200,
      "Ġaholining": 5201,
      "ix": 5202,
      "gil": 5203,
      "ATI": 5204,
      "EV": 5205,
      "Ġï¿½ï¿½ï¿½ï¿½ï¿½ï¿½ï¿½ï¿½ï¿½": 5206,
      "ĠMening": 5207,
      "tmish": 5208,
      "Ġgal": 5209,
      "prik": 5210,
      "Ġparallel": 5211,
      "kini": 5212,
      "ĠIN": 5213,
      "Ġyuborish": 5214,
      "ĠVazir": 5215,
      "enta": 5216,
      "xan": 5217,
      "uvor": 5218,
      "kiga": 5219,
      "Ġuskuna": 5220,
      "Ġkayfi": 5221,
      "76": 5222,
      "Ġtarzida": 5223,
      "Ġortib": 5224,
      "kast": 5225,
      "vot": 5226,
      "Ġpastga": 5227,
      "Ġmuomala": 5228,
      "qozo": 5229,
      "texnika": 5230,
      "maniya": 5231,
      "Ġplan": 5232,
      "kani": 5233,
      "Ġjamg": 5234,
      "Ġkadr": 5235,
      "Ġlavo": 5236,
      "Ġsira": 5237,
      "Ġyuvi": 5238,
      "Ġca": 5239,
      "Ġchiroyli": 5240,
      "Ġdarvoza": 5241,
      "Ġstati": 5242,
      "Ġongi": 5243,
      "Ġgazeta": 5244,
      "Ġmillion": 5245,
      "ulla": 5246,
      "ĠJumladan": 5247,
      "tgach": 5248,
      "laydilar": 5249,
      "Ġbiologik": 5250,
      "Ġyoshga": 5251,
      "Ġbajariladi": 5252,
      "92": 5253,
      "Ġzna": 5254,
      "Ġbuyruq": 5255,
      "leniye": 5256,
      "nun": 5257,
      "Ġfikricha": 5258,
      "git": 5259,
      "Ġindividual": 5260,
      "Ġbori": 5261,
      "Ġakade": 5262,
      "lashuv": 5263,
      "Ġfaro": 5264,
      "ĠAB": 5265,
      "Ġqiziqish": 5266,
      "Ġchiqaradi": 5267,
      "Ġmexanik": 5268,
      "Ġvakolat": 5269,
      "quvchilarning": 5270,
      "Ġtoifa": 5271,
      "ĠXusu": 5272,
      "xonaga": 5273,
      "Ġoxirida": 5274,
      "Ġradio": 5275,
      "Ġsababi": 5276,
      "Ġaskar": 5277,
      "Ġuyga": 5278,
      "ĠMahmud": 5279,
      "baho": 5280,
      "Ġqilma": 5281,
      "Ġbuzilishi": 5282,
      "Ġ65": 5283,
      "Ġkotor": 5284,
      "Ġxilma": 5285,
      "Ġdra": 5286,
      "Ġkuzat": 5287,
      "teti": 5288,
      "Ġaksincha": 5289,
      "Ġoshiq": 5290,
      "dis": 5291,
      "Ġdah": 5292,
      "tiborga": 5293,
      "Ġoro": 5294,
      "ĠAra": 5295,
      "rel": 5296,
      "ĠAyrim": 5297,
      "Ġyan": 5298,
      "Ġchu": 5299,
      "hay": 5300,
      "Ġvalyu": 5301,
      "Ġkorxonalar": 5302,
      "0000": 5303,
      "Ġasari": 5304,
      "ĠTog": 5305,
      "yoqqa": 5306,
      "tirof": 5307,
      "ĠVe": 5308,
      "Ġyozma": 5309,
      "lasha": 5310,
      "Ġommaviy": 5311,
      "han": 5312,
      "shilib": 5313,
      "Ġkana": 5314,
      "Ġnoto": 5315,
      "ydik": 5316,
      "ĠâĪĴ": 5317,
      "Ġbema": 5318,
      "Ġsent": 5319,
      "Ġishlatish": 5320,
      "gik": 5321,
      "Ġtayanch": 5322,
      "fiz": 5323,
      "Ġalay": 5324,
      "Ġshifo": 5325,
      "Ġmaksi": 5326,
      "ĠSin": 5327,
      "Ġzaryad": 5328,
      "xod": 5329,
      "vya": 5330,
      "Ġtarmog": 5331,
      "lagich": 5332,
      "xshaydi": 5333,
      "Ġxorijiy": 5334,
      "Ġqurilishi": 5335,
      "ratli": 5336,
      "naltirilgan": 5337,
      "Ġ52": 5338,
      "lamiz": 5339,
      "ralari": 5340,
      "Ġchiqaruvchi": 5341,
      "Ġobraz": 5342,
      "Ġotasi": 5343,
      "Ja": 5344,
      "Ġboshqacha": 5345,
      "chen": 5346,
      "Ġbilgan": 5347,
      "rning": 5348,
      "Ġshov": 5349,
      "Ġjil": 5350,
      "Ġqoldiq": 5351,
      "Ġgrafi": 5352,
      "rtinchi": 5353,
      "Ġasosi": 5354,
      "Ġsuvda": 5355,
      "Ġeshitib": 5356,
      "ĠUmumiy": 5357,
      "Ġbalan": 5358,
      "rinishida": 5359,
      "Ġaxir": 5360,
      "Ġneft": 5361,
      "dlik": 5362,
      "Nima": 5363,
      "Ġqalbi": 5364,
      "Ġtushunish": 5365,
      "Ġmiqdorini": 5366,
      "ensial": 5367,
      "ĠTil": 5368,
      "del": 5369,
      "Ġtaqqos": 5370,
      "ec": 5371,
      "Ġjavobgar": 5372,
      "Ġdeyi": 5373,
      "ĠOdatda": 5374,
      "Ġiroda": 5375,
      "limning": 5376,
      "Ġnarsalar": 5377,
      "Ġanglatadi": 5378,
      "Ġazob": 5379,
      "Ġboshida": 5380,
      "Ġmehr": 5381,
      "Ġvaz": 5382,
      "Ġzim": 5383,
      "Ġharakatlar": 5384,
      "Ġfanlari": 5385,
      "Ġbata": 5386,
      "ĠâĤ¬": 5387,
      "Ġlib": 5388,
      "pib": 5389,
      "dni": 5390,
      "Ġsariq": 5391,
      "Ġmassasi": 5392,
      "Ġstruktura": 5393,
      "Ġtopilgan": 5394,
      "sirini": 5395,
      "gur": 5396,
      "Ġfak": 5397,
      "ĠQat": 5398,
      "Ġbirla": 5399,
      "qiron": 5400,
      "Ġjami": 5401,
      "Ġboriladi": 5402,
      "masalan": 5403,
      "ular": 5404,
      "Ġhisobot": 5405,
      "Ġustuvor": 5406,
      "Ġyondashuv": 5407,
      "ganlar": 5408,
      "Ġmusobaqa": 5409,
      "Ġshaklda": 5410,
      "Ġjigar": 5411,
      "Ġomon": 5412,
      "dum": 5413,
      "ĠYosh": 5414,
      "Ġnisbiy": 5415,
      "Ġbas": 5416,
      "51": 5417,
      "Ġboshlandi": 5418,
      "Ġodamlarning": 5419,
      "Ġqimmatli": 5420,
      "Ġhav": 5421,
      "Ġrivoji": 5422,
      "ĠXalqaro": 5423,
      "Ġfizik": 5424,
      "hoi": 5425,
      "Ġsavollar": 5426,
      "soniy": 5427,
      "Ġopti": 5428,
      "Ġehtiyot": 5429,
      "Ġkafo": 5430,
      "ty": 5431,
      "Ġqiladilar": 5432,
      "lantiradi": 5433,
      "lilar": 5434,
      "Ġram": 5435,
      "Ġnatijada": 5436,
      "Ġ56": 5437,
      "Ġemish": 5438,
      "Ġtopiladi": 5439,
      "tirma": 5440,
      "Ġkelajak": 5441,
      "ĠQuyidagi": 5442,
      "Ġhayron": 5443,
      "Ġmustaqillik": 5444,
      "ĠShayx": 5445,
      "Ġtilga": 5446,
      "zimga": 5447,
      "ASI": 5448,
      "Ġchidamli": 5449,
      "Ġyotib": 5450,
      "Ġ//": 5451,
      "ĠKam": 5452,
      "langanda": 5453,
      "Ġ43": 5454,
      "rindosh": 5455,
      "INI": 5456,
      "Ye": 5457,
      "Ġstandart": 5458,
      "Ġcheki": 5459,
      "Ġezgu": 5460,
      "Ġpok": 5461,
      "Ġtasodi": 5462,
      "Ġjaro": 5463,
      "Ġtaqozo": 5464,
      "noni": 5465,
      "Ġdeyish": 5466,
      "Ġmunta": 5467,
      "Ġamalda": 5468,
      "kaga": 5469,
      "Ġqobiliyat": 5470,
      "gining": 5471,
      "ying": 5472,
      "Ġsevi": 5473,
      "Ġnatijalari": 5474,
      "Ke": 5475,
      "Ġtizimining": 5476,
      "Ġhamon": 5477,
      "ulg": 5478,
      "Ġqismlari": 5479,
      "Ġuslubi": 5480,
      "Ġ120": 5481,
      "tarish": 5482,
      "Ġuya": 5483,
      "ag": 5484,
      "stv": 5485,
      "Ġinnova": 5486,
      "Ġfoto": 5487,
      "Ġyashab": 5488,
      "ĠEron": 5489,
      "onlar": 5490,
      "Ġqulog": 5491,
      "Ġpsixologiya": 5492,
      "Ġishonchli": 5493,
      "ĠQishloq": 5494,
      "Ġisto": 5495,
      "Ġjar": 5496,
      "Ġqarz": 5497,
      "Ġqurilgan": 5498,
      "Ġfalsafiy": 5499,
      "Ġbizni": 5500,
      "ĠGe": 5501,
      "uy": 5502,
      "Ġqisman": 5503,
      "Ġmohiyatini": 5504,
      "boyev": 5505,
      "kofo": 5506,
      "yillik": 5507,
      "Ġhayvonlar": 5508,
      "Ġkasbiy": 5509,
      "Ġkuchay": 5510,
      "kol": 5511,
      "rq": 5512,
      "Ġï¿½ï¿½": 5513,
      "Ġnizo": 5514,
      "lmish": 5515,
      "formatsiya": 5516,
      "hmon": 5517,
      "Ġrangli": 5518,
      "Ġsab": 5519,
      "qim": 5520,
      "91": 5521,
      "Ġkiyi": 5522,
      "orish": 5523,
      "Ġishora": 5524,
      "shidan": 5525,
      "Ġkeltiradi": 5526,
      "Ġasl": 5527,
      "Ġchiqarilgan": 5528,
      "zgarib": 5529,
      "ĠUm": 5530,
      "yoni": 5531,
      "rinli": 5532,
      "Ġqiyinchilik": 5533,
      "Ġqorong": 5534,
      "volyu": 5535,
      "Ġmuddatli": 5536,
      "Ġqildim": 5537,
      "uquqiy": 5538,
      "Ġqisqar": 5539,
      "sonli": 5540,
      "Ġ,,": 5541,
      "qilib": 5542,
      "Ġxomashyo": 5543,
      "ĠBozor": 5544,
      "shanda": 5545,
      "Ġichra": 5546,
      "yiga": 5547,
      "................................................................": 5548,
      "hil": 5549,
      "Ġyuqoridagi": 5550,
      "Ġsoz": 5551,
      "Ġmasalalari": 5552,
      "prav": 5553,
      "Ġjadal": 5554,
      "gohi": 5555,
      "ras": 5556,
      "Ġjavo": 5557,
      "Ġnari": 5558,
      "LASH": 5559,
      "Ġdavlatlar": 5560,
      "olib": 5561,
      "Ġsilin": 5562,
      "ĠDil": 5563,
      "Ġxari": 5564,
      "Ne": 5565,
      "Ġsoya": 5566,
      "Ġuchib": 5567,
      "mato": 5568,
      "tikal": 5569,
      "Ġkundan": 5570,
      "Ġpoya": 5571,
      "Ġbiladi": 5572,
      "Ġast": 5573,
      "Ġfani": 5574,
      "Ġnozik": 5575,
      "Ġasrda": 5576,
      "Ġxizmatlar": 5577,
      "Ġbayra": 5578,
      "zax": 5579,
      "Ġsuvga": 5580,
      "Ġusullar": 5581,
      "Ġovozi": 5582,
      "ĠBino": 5583,
      "Ġshaf": 5584,
      "Ġkimga": 5585,
      "ĠBog": 5586,
      "Ġbelgisi": 5587,
      "ĠIz": 5588,
      "Ġtayyorgarlik": 5589,
      "ĠAt": 5590,
      "Ġnisbat": 5591,
      "Ġalmashin": 5592,
      "Ġyakun": 5593,
      "spi": 5594,
      "ĠAlbatta": 5595,
      "tomon": 5596,
      "Ġgaplar": 5597,
      "Ġyang": 5598,
      "rum": 5599,
      "Ġmodel": 5600,
      "ĠUndan": 5601,
      "Ġ150": 5602,
      "IS": 5603,
      "ĠSta": 5604,
      "ĠNor": 5605,
      "ĠNizo": 5606,
      "kish": 5607,
      "Ġcheksiz": 5608,
      "Ġboshlig": 5609,
      "LAN": 5610,
      "torlik": 5611,
      "Ġshikast": 5612,
      "71": 5613,
      "Ġolinadigan": 5614,
      "Ġmuddati": 5615,
      "Ġmezon": 5616,
      "rod": 5617,
      "Ġturadigan": 5618,
      "Ġolamiz": 5619,
      "tkazgich": 5620,
      "Ġdarhol": 5621,
      ".).": 5622,
      "Ġoqim": 5623,
      "Ġlah": 5624,
      "Ġshartli": 5625,
      "Ġkomponent": 5626,
      "Ã¥Ã": 5627,
      "ĠĠĠĠĠĠĠĠĠĠĠ": 5628,
      ",-": 5629,
      "Ġaksa": 5630,
      "koyat": 5631,
      "Ġtang": 5632,
      "Ġchiqilgan": 5633,
      "Ġyozadi": 5634,
      "Ġsoldi": 5635,
      "Ġqamrab": 5636,
      "Ġdunyoga": 5637,
      "ganim": 5638,
      "yajon": 5639,
      "Ġdunyoqa": 5640,
      "Ġoyna": 5641,
      "Ġmarka": 5642,
      "66": 5643,
      "ulom": 5644,
      "deya": 5645,
      "Ġmahsulotlar": 5646,
      "Ġintilish": 5647,
      "ĠUmuman": 5648,
      "ĠBuyuk": 5649,
      "plo": 5650,
      "mizdan": 5651,
      "lmaslik": 5652,
      "tdan": 5653,
      "Ġjoylarda": 5654,
      "Ġkelsa": 5655,
      "Ġqilinadigan": 5656,
      "Ġsohasidagi": 5657,
      "qe": 5658,
      "Ġimzo": 5659,
      "Ġtim": 5660,
      "dona": 5661,
      "Ġach": 5662,
      "lisi": 5663,
      "Ġgipo": 5664,
      "stlik": 5665,
      "ental": 5666,
      "Ġmamlakatlar": 5667,
      "AQ": 5668,
      "Ġpog": 5669,
      "Ġaylanishi": 5670,
      "Ġoso": 5671,
      "siyosiy": 5672,
      "Ġdavolash": 5673,
      "Ġnafar": 5674,
      "Ġ>": 5675,
      "Ġ........": 5676,
      "uning": 5677,
      "ĠHatto": 5678,
      "bus": 5679,
      "Ġ58": 5680,
      "Ġgunoh": 5681,
      "Ġgramma": 5682,
      "Ġbormi": 5683,
      "ĠAyni": 5684,
      "tana": 5685,
      "Ġmaksimal": 5686,
      "Ġiloji": 5687,
      "Ġosi": 5688,
      "Ġxulq": 5689,
      "ambar": 5690,
      "missiya": 5691,
      "Ġdasturi": 5692,
      "Ġgorizontal": 5693,
      "Ġdis": 5694,
      "qum": 5695,
      "Ġbiznes": 5696,
      "Ġmunosib": 5697,
      "rnida": 5698,
      "ĠKom": 5699,
      "ksa": 5700,
      "Ġrazvi": 5701,
      "ĠIshlab": 5702,
      "Ġmir": 5703,
      "Ġberishga": 5704,
      "Ġyoxud": 5705,
      "Ġburun": 5706,
      "Ġdetal": 5707,
      "Ġsahifa": 5708,
      "Ġbeza": 5709,
      "azab": 5710,
      "Ġpodshoh": 5711,
      "pas": 5712,
      "Ġyetakchi": 5713,
      "pni": 5714,
      "Ġtashkilotlar": 5715,
      "Ġsaqlanib": 5716,
      "Ġhokim": 5717,
      "Ġquvur": 5718,
      "Ġalmashtirish": 5719,
      "Ġtri": 5720,
      "liklarning": 5721,
      "naviyat": 5722,
      "UM": 5723,
      "ngu": 5724,
      "Ġig": 5725,
      "ratini": 5726,
      "hum": 5727,
      "Ġtarg": 5728,
      "Ġkitobi": 5729,
      "Ġten": 5730,
      "tiri": 5731,
      "Ġboyi": 5732,
      "alaba": 5733,
      "Ġnn": 5734,
      "Ġmunosabatlari": 5735,
      "Ħĸ": 5736,
      "Ġmustahkamlash": 5737,
      "02": 5738,
      "Ġjadva": 5739,
      "Ġqolsa": 5740,
      "dalar": 5741,
      "ngizda": 5742,
      "Ġdemokratik": 5743,
      "Ġoxiri": 5744,
      "qiqot": 5745,
      "Ġbelgilar": 5746,
      "Ġfran": 5747,
      "Ġhamkorlik": 5748,
      "ĠBizning": 5749,
      "kni": 5750,
      "Ġjadval": 5751,
      "rdim": 5752,
      "Ġxayol": 5753,
      "Da": 5754,
      "sni": 5755,
      "ltin": 5756,
      "Ġiqtisodiyoti": 5757,
      "Ġkelg": 5758,
      "Ġfunksional": 5759,
      "ĠSur": 5760,
      "Ġimo": 5761,
      "dagog": 5762,
      "rnatish": 5763,
      "Ġpun": 5764,
      "Ġfarqi": 5765,
      "vq": 5766,
      "\")": 5767,
      "UV": 5768,
      "ĠHusayn": 5769,
      "Ġ....": 5770,
      "ĠTex": 5771,
      "ydilar": 5772,
      "rativ": 5773,
      "sulot": 5774,
      "rad": 5775,
      "Ġ51": 5776,
      "yeva": 5777,
      "kir": 5778,
      "liqdir": 5779,
      "ĠFer": 5780,
      "nta": 5781,
      "Ġegasi": 5782,
      "Ġguvoh": 5783,
      "dova": 5784,
      "Ġqarshilik": 5785,
      "torlar": 5786,
      "ĠSt": 5787,
      "Ġoqibatida": 5788,
      "Ġtizimida": 5789,
      "vodi": 5790,
      "Ġbilmay": 5791,
      "ĠGap": 5792,
      "pre": 5793,
      "barin": 5794,
      "Ġqayt": 5795,
      "Ġkulib": 5796,
      "riddin": 5797,
      "Ġxlo": 5798,
      "Ġtashkiliy": 5799,
      "Ġparametr": 5800,
      "ert": 5801,
      "Ġbormoqda": 5802,
      "zgaradi": 5803,
      "OZ": 5804,
      "Ġdur": 5805,
      "zgaruvchan": 5806,
      "Ġijodkor": 5807,
      "rsatkichlari": 5808,
      "Ġyuv": 5809,
      "ĠTuproq": 5810,
      "udiy": 5811,
      "kaya": 5812,
      "Ġayollar": 5813,
      "Ġyoshlar": 5814,
      "Ġsaro": 5815,
      "Ġturg": 5816,
      "bud": 5817,
      "vay": 5818,
      "Ġolov": 5819,
      "Ġshunchalik": 5820,
      "ĠAsar": 5821,
      "Ġelementlari": 5822,
      "Ġguruhga": 5823,
      "Ġprofessor": 5824,
      "ektiv": 5825,
      "shdi": 5826,
      "US": 5827,
      "Ġfay": 5828,
      "lyo": 5829,
      "rganib": 5830,
      "Ġdavlatning": 5831,
      "Ġoxiriga": 5832,
      "Ġkuchlar": 5833,
      "ĠYoz": 5834,
      "tomonlama": 5835,
      "suz": 5836,
      "ĠBay": 5837,
      "Ġmatematik": 5838,
      "Ġsakki": 5839,
      "Ġmijo": 5840,
      "ĠShahar": 5841,
      "Ġ49": 5842,
      "Ġyigirma": 5843,
      "Ġqochib": 5844,
      "Ġdviga": 5845,
      "Ġyaratadi": 5846,
      "Ġqadi": 5847,
      "Ġprinsip": 5848,
      "Ġfanlar": 5849,
      "Ġrayon": 5850,
      "III": 5851,
      "Ġjoni": 5852,
      "Ġ95": 5853,
      "ust": 5854,
      "shlig": 5855,
      "Ġbel": 5856,
      "Ġbolaning": 5857,
      "kada": 5858,
      "Bi": 5859,
      "lizatsiya": 5860,
      "lanishlar": 5861,
      "Ġquvon": 5862,
      "Ġishini": 5863,
      "boq": 5864,
      "Ġzamin": 5865,
      "elekt": 5866,
      "ĠTarix": 5867,
      "ĠOt": 5868,
      "orov": 5869,
      "ĠOb": 5870,
      "Ġsathi": 5871,
      "Ùİ": 5872,
      "Ġmukofo": 5873,
      "ĠEh": 5874,
      "Ġqabila": 5875,
      "Ġvafot": 5876,
      "Ġmuntazam": 5877,
      "yp": 5878,
      "Ġinsoniyat": 5879,
      "ĠYusuf": 5880,
      "ĠBan": 5881,
      "Ġbular": 5882,
      "Ġolar": 5883,
      "ror": 5884,
      "qiq": 5885,
      "rtta": 5886,
      "zorat": 5887,
      "Ġzichligi": 5888,
      "Ġinstitut": 5889,
      "EM": 5890,
      "urod": 5891,
      "Ġstrategiya": 5892,
      "Ġpiyo": 5893,
      "stvu": 5894,
      "dagogik": 5895,
      "rasmda": 5896,
      "Ġtibbiy": 5897,
      "did": 5898,
      "giz": 5899,
      "Ġmutlaqo": 5900,
      "Ġrad": 5901,
      "chkina": 5902,
      "Ġorqaga": 5903,
      "Ġ1000": 5904,
      "Ġyorqin": 5905,
      "Ġmazmunini": 5906,
      "roh": 5907,
      "Ġqishlog": 5908,
      "Ġran": 5909,
      "Ġval": 5910,
      "Ġmg": 5911,
      "zarb": 5912,
      "Ġobyektiv": 5913,
      "nay": 5914,
      "Ġqildilar": 5915,
      "ĠQir": 5916,
      "yqa": 5917,
      "yillar": 5918,
      "Ġsohasi": 5919,
      "vede": 5920,
      ",)": 5921,
      "ĠKonstitutsiya": 5922,
      "Ġtat": 5923,
      "Ġtus": 5924,
      "Ġtaya": 5925,
      "Ġeff": 5926,
      "Sha": 5927,
      "ssam": 5928,
      "zilma": 5929,
      "ĠZi": 5930,
      "Ġobla": 5931,
      "ĠAN": 5932,
      "fikat": 5933,
      "ĠQonun": 5934,
      "Ġixtisos": 5935,
      "Ġajab": 5936,
      "ĠUchinchi": 5937,
      "Ġtab": 5938,
      "Ġhodisalar": 5939,
      "limer": 5940,
      "Ġvodorod": 5941,
      "Ġtalablar": 5942,
      "raning": 5943,
      "ĠInter": 5944,
      "Ġao": 5945,
      "Ġtobora": 5946,
      "rii": 5947,
      "Bir": 5948,
      "ab": 5949,
      "pat": 5950,
      "Ġbalandligi": 5951,
      "azal": 5952,
      "Ġfuqarolik": 5953,
      "Ġsxemasi": 5954,
      "Ġkimsa": 5955,
      "Ġkatego": 5956,
      "Ġshun": 5957,
      "mun": 5958,
      "Ġtamom": 5959,
      "EE": 5960,
      "indisi": 5961,
      "Ġfol": 5962,
      "Ġchorva": 5963,
      "Ġuncha": 5964,
      "digan": 5965,
      "rax": 5966,
      "rlari": 5967,
      "Ġduo": 5968,
      "ĠQal": 5969,
      "Ġtortish": 5970,
      "onning": 5971,
      "88": 5972,
      "kidlash": 5973,
      "56": 5974,
      "talari": 5975,
      "unna": 5976,
      "drasa": 5977,
      "ad": 5978,
      "shiladi": 5979,
      "raga": 5980,
      "Ġmuqaddas": 5981,
      "Biz": 5982,
      "Ġaksiya": 5983,
      "onomi": 5984,
      "rot": 5985,
      "Ġqozon": 5986,
      "Ġoqimi": 5987,
      "Åĵ": 5988,
      "ID": 5989,
      "Ġtit": 5990,
      "ĠSSSR": 5991,
      "ragan": 5992,
      "Ġnazaridan": 5993,
      "qov": 5994,
      "laman": 5995,
      "Ġproiz": 5996,
      "Ġingliz": 5997,
      "Ġmantiqiy": 5998,
      "ttifoq": 5999,
      "Ġqanoat": 6000,
      "Ġbirida": 6001,
      "Ġasarida": 6002,
      "Ġpoch": 6003,
      "Ġhazrat": 6004,
      "ruv": 6005,
      "xgalteriya": 6006,
      "AD": 6007,
      "Ġquyidagilar": 6008,
      "gda": 6009,
      "In": 6010,
      "Ġbosma": 6011,
      "lagani": 6012,
      "Ġsohi": 6013,
      "Ġtanlab": 6014,
      "stona": 6015,
      "ĠFor": 6016,
      "shqa": 6017,
      "Â»)": 6018,
      "Ġboshlangan": 6019,
      "Ġbat": 6020,
      "Ġzaif": 6021,
      "Ġortishi": 6022,
      "ej": 6023,
      "BIY": 6024,
      "Ġkishini": 6025,
      "Ġvra": 6026,
      "Ġsel": 6027,
      "Ġbyudjet": 6028,
      "ĠIjtimoiy": 6029,
      "Ġii": 6030,
      "rli": 6031,
      "Va": 6032,
      "Ġdarax": 6033,
      "ĠKun": 6034,
      "koh": 6035,
      "Ġildiz": 6036,
      "Ġmajburiy": 6037,
      "Ġkonsep": 6038,
      "rsatishi": 6039,
      "Ġsiyosati": 6040,
      "ĠAndijon": 6041,
      "ĠKeyingi": 6042,
      "Ho": 6043,
      "yatini": 6044,
      "Ġmanbai": 6045,
      "larli": 6046,
      "lashdan": 6047,
      "Ġsifatini": 6048,
      "Ġmushak": 6049,
      "zbekistonning": 6050,
      "yga": 6051,
      "ĠQodi": 6052,
      "Ġsik": 6053,
      "Ġino": 6054,
      "Ġyengi": 6055,
      "Ġaxloq": 6056,
      "ĠRus": 6057,
      "manda": 6058,
      "shen": 6059,
      "74": 6060,
      "Ġkommuni": 6061,
      "ĠXu": 6062,
      "Ġmavqe": 6063,
      "Ġ300": 6064,
      "Ġqayerda": 6065,
      "Ġvazifalarni": 6066,
      "Ġvalyuta": 6067,
      "Ġhayrat": 6068,
      "Ġtadqiqotlar": 6069,
      "rindi": 6070,
      "oratoriya": 6071,
      "Ġong": 6072,
      "toj": 6073,
      "ard": 6074,
      "ĠAzi": 6075,
      "Ġyoqa": 6076,
      "Ġqiymatini": 6077,
      "Ġidish": 6078,
      "Ġzarba": 6079,
      "Ġhissi": 6080,
      "Ġoshadi": 6081,
      "xonada": 6082,
      "Ġmuloqot": 6083,
      "yni": 6084,
      "Sho": 6085,
      "81": 6086,
      "Ġqayg": 6087,
      "llangan": 6088,
      "Ġkafolat": 6089,
      "Ġqilmaydi": 6090,
      "lovchilar": 6091,
      "Ġyomg": 6092,
      "Ġdahshat": 6093,
      "Ġshunaqa": 6094,
      "Ġmuhokama": 6095,
      "Ġdru": 6096,
      "oye": 6097,
      "ĠTU": 6098,
      "Ġsonlar": 6099,
      "ĠXV": 6100,
      "Ġenergiyasi": 6101,
      "ĠPet": 6102,
      "Ġtushuniladi": 6103,
      "Ġhududida": 6104,
      "Ġsaroy": 6105,
      "Ġqilaman": 6106,
      "oliya": 6107,
      "ĠAng": 6108,
      "Ġmansab": 6109,
      "Ġtaal": 6110,
      "Ġfarqli": 6111,
      "cheniya": 6112,
      "52": 6113,
      "liki": 6114,
      "ĠJon": 6115,
      "Ġvositasida": 6116,
      "86": 6117,
      "Ġtaraq": 6118,
      "Ġishlatiladigan": 6119,
      "Ġbirlamchi": 6120,
      "dida": 6121,
      "skaya": 6122,
      "Ġberilishi": 6123,
      "hrat": 6124,
      "ms": 6125,
      "Ġundagi": 6126,
      "yilning": 6127,
      "Ġkamayadi": 6128,
      "kmat": 6129,
      "Ġeshitgan": 6130,
      "Ġspir": 6131,
      "ĠBaho": 6132,
      "tilayotgan": 6133,
      "Ġtaf": 6134,
      "slik": 6135,
      "Ġtozalash": 6136,
      "))": 6137,
      "Ġqadimiy": 6138,
      "Ġbirmuncha": 6139,
      "ĠÂ«!": 6140,
      "ĠMaktab": 6141,
      "ĠPay": 6142,
      "Ġmasalalarni": 6143,
      "Ġbolalarning": 6144,
      "Ġmasalasi": 6145,
      "chani": 6146,
      "jeniya": 6147,
      "hibqiron": 6148,
      "Ġbarobar": 6149,
      "Ġjoylashtirish": 6150,
      "Ġperi": 6151,
      "Ġpala": 6152,
      "ĠCa": 6153,
      "Ġfunksiyasi": 6154,
      "Ġfikrlar": 6155,
      "tsiyasi": 6156,
      "Ġkelar": 6157,
      "pog": 6158,
      "Ġtiliga": 6159,
      "xeo": 6160,
      "chir": 6161,
      "Ġdard": 6162,
      "Ġprotses": 6163,
      "gratsiya": 6164,
      "voni": 6165,
      "duz": 6166,
      "ĠXoja": 6167,
      "CO": 6168,
      "gust": 6169,
      "hri": 6170,
      "Ġikkinchisi": 6171,
      "Ġziddi": 6172,
      "moz": 6173,
      "Ġdolzarb": 6174,
      "Ġasrlar": 6175,
      "Ġbirini": 6176,
      "Ġchiqadigan": 6177,
      "Ġtibbiyot": 6178,
      "Ġxavfli": 6179,
      "Ġyechish": 6180,
      "Ġatmosfera": 6181,
      "xodi": 6182,
      "Ġtebranish": 6183,
      "sudar": 6184,
      "Ġborasida": 6185,
      "SHI": 6186,
      "Ġlik": 6187,
      "Ġtushunchalar": 6188,
      "Ġjarohat": 6189,
      "ĠUzbekistan": 6190,
      "top": 6191,
      "jno": 6192,
      "Ġvositasi": 6193,
      "Ġ57": 6194,
      "liqni": 6195,
      "Ġichidagi": 6196,
      "Ġbiriga": 6197,
      "Ġoqib": 6198,
      "jde": 6199,
      "Ġderaza": 6200,
      "tmay": 6201,
      "som": 6202,
      "ĠXiva": 6203,
      "ĠUmar": 6204,
      "tidagi": 6205,
      "Ã§": 6206,
      "SR": 6207,
      "Ġtopdi": 6208,
      "Ġoqil": 6209,
      "Ġajratilgan": 6210,
      "Ġtarbiyalash": 6211,
      "ĠUlarni": 6212,
      "Ġsaf": 6213,
      "Ġobro": 6214,
      "Ġqoldim": 6215,
      "Ġyasalgan": 6216,
      "Ġyuzasi": 6217,
      "ping": 6218,
      "voyi": 6219,
      "Ġnat": 6220,
      "Ġtort": 6221,
      "ldosh": 6222,
      "Ġerur": 6223,
      "Ġchiqin": 6224,
      "Ġ500": 6225,
      "Ġyashil": 6226,
      "Ġoshirishga": 6227,
      "Ġtoki": 6228,
      "ĠAd": 6229,
      "matiga": 6230,
      "ĠâĦĸ": 6231,
      "Ġ\\": 6232,
      "Ġmedi": 6233,
      "metriya": 6234,
      "eko": 6235,
      "unonchi": 6236,
      "dani": 6237,
      "lad": 6238,
      "kning": 6239,
      "Ġetishda": 6240,
      "Ġï¿½ï¿½ï¿½ï¿½ï¿½ï¿½ï¿½ï¿½ï¿½ï¿½": 6241,
      "ĠSino": 6242,
      "nuyu": 6243,
      "Ġavlo": 6244,
      "ĠSovet": 6245,
      "Ch": 6246,
      "kabr": 6247,
      "Ġusullarini": 6248,
      "Ġtong": 6249,
      "shilgan": 6250,
      "Ġxossalari": 6251,
      "Ġbulgan": 6252,
      "imi": 6253,
      "Ġrivoyat": 6254,
      "Ġtol": 6255,
      "ash": 6256,
      "Ġonasi": 6257,
      "nalar": 6258,
      "Ġsayyo": 6259,
      "Ġkelganda": 6260,
      "Ġjinsiy": 6261,
      "rsatkichlar": 6262,
      "cheskiye": 6263,
      "qotish": 6264,
      "sallik": 6265,
      "Ġkino": 6266,
      "stor": 6267,
      "Ġyumshoq": 6268,
      "De": 6269,
      "ritsa": 6270,
      "Ġtuzu": 6271,
      "liz": 6272,
      "cheniye": 6273,
      "Ġdiss": 6274,
      "chaning": 6275,
      "Ġxis": 6276,
      "Ġsotsial": 6277,
      "57": 6278,
      "natsiya": 6279,
      "Ġkurs": 6280,
      "zilgan": 6281,
      "Ġsizni": 6282,
      "Ġunut": 6283,
      "paytirish": 6284,
      "jik": 6285,
      "Ġmux": 6286,
      "Ġtashab": 6287,
      "vlya": 6288,
      "chada": 6289,
      "ĠSer": 6290,
      "chizma": 6291,
      "xoz": 6292,
      "Ġoldinga": 6293,
      "Ġfoydalanuvchi": 6294,
      "yildan": 6295,
      "ĠSal": 6296,
      "Ġyoziladi": 6297,
      "Ġinkor": 6298,
      "xtab": 6299,
      "lanishga": 6300,
      "Ġtanga": 6301,
      "rsatuvchi": 6302,
      "Ġkishiga": 6303,
      "ĠAholi": 6304,
      "Ġtanqid": 6305,
      "Ġcher": 6306,
      "ĠVazirlar": 6307,
      "yotiga": 6308,
      "Ġurg": 6309,
      "Ġmeros": 6310,
      "Ġhalok": 6311,
      "moqqa": 6312,
      "Ġshakllangan": 6313,
      "ĠGermaniya": 6314,
      "giye": 6315,
      "lajak": 6316,
      "06": 6317,
      "vas": 6318,
      "Ġblo": 6319,
      "Ġishlashi": 6320,
      "Ġasrlarda": 6321,
      "Ġyashirin": 6322,
      "Ġnarsaga": 6323,
      "Ġsamaradorligini": 6324,
      "ĠKuch": 6325,
      "Ġapparat": 6326,
      "Ġyetgan": 6327,
      "Ġkuzatib": 6328,
      "ĠBOB": 6329,
      "Ġtadbirkor": 6330,
      "Ġyuqoriga": 6331,
      "Ġjoyida": 6332,
      "Ġspo": 6333,
      "Ġkamaytirish": 6334,
      "INING": 6335,
      "Ġasarlarida": 6336,
      "tsional": 6337,
      "Ġtovarlar": 6338,
      "yilga": 6339,
      "Ġholatiga": 6340,
      "Ġare": 6341,
      "tmagan": 6342,
      "Ġea": 6343,
      "Ġkompozi": 6344,
      "Ġnamoyish": 6345,
      "kiya": 6346,
      "BEK": 6347,
      "Ġxarajatlari": 6348,
      "onda": 6349,
      "Ġ==": 6350,
      "rilganda": 6351,
      "Ġ96": 6352,
      "hod": 6353,
      "ulloh": 6354,
      "zlab": 6355,
      "Ġprinsipi": 6356,
      "arov": 6357,
      "Ġmahrum": 6358,
      "Ġpishi": 6359,
      "tt": 6360,
      "Ġimpe": 6361,
      "ĠMaq": 6362,
      "idagi": 6363,
      "Ġsuvning": 6364,
      "Ġedik": 6365,
      "Ġolmay": 6366,
      "Ġtaxminan": 6367,
      "Ġispol": 6368,
      "Ġmuja": 6369,
      "Ġqatlami": 6370,
      "Ġqadim": 6371,
      "Ġalayhi": 6372,
      "Ġqaytar": 6373,
      "Ġdegani": 6374,
      "kalari": 6375,
      "ĠJavob": 6376,
      "ĠChe": 6377,
      "lanmaydi": 6378,
      "tqa": 6379,
      "Ġ72": 6380,
      "Ġyak": 6381,
      "ĠAg": 6382,
      "03": 6383,
      "Ġadib": 6384,
      "RA": 6385,
      "rishni": 6386,
      "UT": 6387,
      "Ġkimyo": 6388,
      "Ġbaribir": 6389,
      "Ġkategoriya": 6390,
      "chora": 6391,
      "qilgan": 6392,
      "Ġxalqning": 6393,
      "Ġsulton": 6394,
      "Ġ54": 6395,
      "Ġaho": 6396,
      "maliy": 6397,
      "Ġoprede": 6398,
      "84": 6399,
      "Ġgeografik": 6400,
      "Ġgor": 6401,
      "Ġbilimlar": 6402,
      "llarni": 6403,
      "Ġbeton": 6404,
      "Ġrejalashtirish": 6405,
      "Ġkabilar": 6406,
      "Ġostiga": 6407,
      "IST": 6408,
      "monlar": 6409,
      "ĠDu": 6410,
      "nmi": 6411,
      "ĠIskan": 6412,
      "Ġkesib": 6413,
      "tkazib": 6414,
      "Ġajratiladi": 6415,
      "ĠKO": 6416,
      "ribon": 6417,
      "Ġekspe": 6418,
      "Ġaylandi": 6419,
      "Ġarava": 6420,
      "Ġqilishning": 6421,
      "Ġbot": 6422,
      "ĠAdabiyot": 6423,
      "Ġjarayonining": 6424,
      "Ġkamo": 6425,
      "Ġtahlili": 6426,
      "Ġnarxi": 6427,
      "Ġjamiyatning": 6428,
      "Ġtaqsimo": 6429,
      "Tur": 6430,
      "Ġqato": 6431,
      "jib": 6432,
      "shakl": 6433,
      "ĠDastlab": 6434,
      "--------": 6435,
      "yay": 6436,
      "Ġbanda": 6437,
      "Ġkampir": 6438,
      "ĠkoÊ»": 6439,
      "lokat": 6440,
      "Ġmanzara": 6441,
      "tamin": 6442,
      "Ġtashqariga": 6443,
      "atini": 6444,
      "tok": 6445,
      "Ġsk": 6446,
      "Ġelementlar": 6447,
      "rganadi": 6448,
      "xonning": 6449,
      "langa": 6450,
      "stvi": 6451,
      "Ġingi": 6452,
      "Ġifodalangan": 6453,
      "Ġpoe": 6454,
      "doshi": 6455,
      "Ġyoshdagi": 6456,
      "Ġtabaqa": 6457,
      "rof": 6458,
      "Ġxonim": 6459,
      "Ġavtomobil": 6460,
      "sl": 6461,
      "naning": 6462,
      "Ġ00": 6463,
      "Ġvoqealar": 6464,
      "Ġtipi": 6465,
      "Ġtutash": 6466,
      "Ġtaalluq": 6467,
      "Ġbut": 6468,
      "Sen": 6469,
      "Ġajrat": 6470,
      "Ġqari": 6471,
      "versa": 6472,
      "Ġ85": 6473,
      "yum": 6474,
      "Ġshahrida": 6475,
      "ĠÃ½": 6476,
      "und": 6477,
      "Ġuyiga": 6478,
      "llaniladigan": 6479,
      "ĠFransiya": 6480,
      "Ġchiqariladi": 6481,
      "Ġistiqbo": 6482,
      "Ġxro": 6483,
      "rifi": 6484,
      "Ġsazo": 6485,
      "Ġnarsalarni": 6486,
      "nada": 6487,
      "Ġbuyon": 6488,
      "ĠOra": 6489,
      "08": 6490,
      "Ġmuhar": 6491,
      "Ġtovu": 6492,
      "Ġsubyek": 6493,
      "Ġaslida": 6494,
      "ildirak": 6495,
      "irligi": 6496,
      "Ġsinov": 6497,
      "Ġqarindosh": 6498,
      "qiga": 6499,
      "Ġpotensial": 6500,
      "Ġsalom": 6501,
      "Ġusulida": 6502,
      "ĠNihoyat": 6503,
      "ĠTush": 6504,
      "arounna": 6505,
      "Ey": 6506,
      "muhi": 6507,
      "Ġsohada": 6508,
      "Ġdagi": 6509,
      "Ġaholisi": 6510,
      "Ġtezroq": 6511,
      "ĠPri": 6512,
      "ĠBolalar": 6513,
      "Ġuzviy": 6514,
      "Ġmusbat": 6515,
      "ĠAlek": 6516,
      "Ġregi": 6517,
      "Ġref": 6518,
      "Ġyurti": 6519,
      "Ġvertikal": 6520,
      "Ġnomini": 6521,
      "laringiz": 6522,
      "Ġqilardi": 6523,
      "Ġifodalash": 6524,
      "Ġsred": 6525,
      "Ġmoment": 6526,
      "Ġtashladi": 6527,
      "malarning": 6528,
      "Ġaytilgan": 6529,
      "ĠTurli": 6530,
      "Ġime": 6531,
      "Ġchiqqa": 6532,
      "Ġismi": 6533,
      "ger": 6534,
      "ĠMeni": 6535,
      "iye": 6536,
      "Ġmashqlar": 6537,
      "Ġsezilarli": 6538,
      "Ġaya": 6539,
      "Te": 6540,
      "Ġholatga": 6541,
      "Ġpreparat": 6542,
      "ĠZero": 6543,
      "Ġnomidagi": 6544,
      "ĠMahka": 6545,
      "tmi": 6546,
      "Ġholi": 6547,
      "organizm": 6548,
      "Ġqilg": 6549,
      "limda": 6550,
      "smir": 6551,
      "73": 6552,
      "Ġanglab": 6553,
      "Ġraq": 6554,
      "Ġger": 6555,
      "Ġxalqlar": 6556,
      "tiqod": 6557,
      "Ġhajm": 6558,
      "dimi": 6559,
      "Ġsochi": 6560,
      "Ġyong": 6561,
      "Ġsuvi": 6562,
      "Ġqoidalari": 6563,
      "ĠZu": 6564,
      "Ġnimaga": 6565,
      "Ġolganda": 6566,
      "EL": 6567,
      "Ġyordamchi": 6568,
      "moy": 6569,
      "zuqa": 6570,
      "ĠĠĠĠĠĠĠĠĠĠĠĠ": 6571,
      "Ġsignal": 6572,
      "Ġnatijasi": 6573,
      "parvarlik": 6574,
      "yma": 6575,
      "Ġketar": 6576,
      "ys": 6577,
      "Ġkoeffitsiyenti": 6578,
      "Ġdiametri": 6579,
      "Ġlu": 6580,
      "yron": 6581,
      "Ġzid": 6582,
      "OK": 6583,
      "Ġtalabalar": 6584,
      "Ġturuvchi": 6585,
      "odat": 6586,
      "Ġbilimlarni": 6587,
      "Ġprog": 6588,
      "yori": 6589,
      "ĠEk": 6590,
      "Ġmamlakatlarda": 6591,
      "Ġmuvaffaqiyat": 6592,
      "ovchi": 6593,
      "ĠðĿĳ": 6594,
      "ĠXay": 6595,
      "ĠMov": 6596,
      "lishni": 6597,
      "Ġetadigan": 6598,
      "Ġyuritiladi": 6599,
      "Ã¶": 6600,
      "Ġkeltir": 6601,
      "Ġyetadi": 6602,
      "Ġsharti": 6603,
      "ĠIlmiy": 6604,
      "Ġfoydalangan": 6605,
      "Ġtusha": 6606,
      "Ġbarchasi": 6607,
      "ĠÂ«?": 6608,
      "Ġqismiga": 6609,
      "Ġombor": 6610,
      "Ġbosti": 6611,
      "ĠOybek": 6612,
      "Ġmadrasa": 6613,
      "ARI": 6614,
      "irlik": 6615,
      "rosti": 6616,
      "Ġborar": 6617,
      "ĠButun": 6618,
      "Ġpal": 6619,
      "ĠBugun": 6620,
      ".;": 6621,
      "Ġborada": 6622,
      "Ġjoiz": 6623,
      "Ġbosimi": 6624,
      "Ġekish": 6625,
      "Ġxotir": 6626,
      "NK": 6627,
      "Ġberildi": 6628,
      "Ġodamni": 6629,
      "Ġettirish": 6630,
      "Ġalam": 6631,
      "Ġtekislik": 6632,
      "Ġkuchsiz": 6633,
      "hid": 6634,
      "had": 6635,
      "Ġgruppa": 6636,
      "Ġkeluvchi": 6637,
      "58": 6638,
      "ĠDav": 6639,
      "Ġspekt": 6640,
      "Ġkvadrat": 6641,
      "Ġtijorat": 6642,
      "Ġturkum": 6643,
      "tsa": 6644,
      "Ġyotadi": 6645,
      "Ġcom": 6646,
      "Ġtushuntirish": 6647,
      "Ġayon": 6648,
      "Ġtashlash": 6649,
      "Ġkengaytirish": 6650,
      "lpon": 6651,
      "ure": 6652,
      "Ġkislorod": 6653,
      "cheskogo": 6654,
      "Ġtalaff": 6655,
      "texnik": 6656,
      "Ġrabo": 6657,
      "Ġprofes": 6658,
      "tiring": 6659,
      "Ġhayajon": 6660,
      "ĠBA": 6661,
      "pqa": 6662,
      "Ġqatnash": 6663,
      "spor": 6664,
      "Ġboshliq": 6665,
      "Ġtuyu": 6666,
      "Ġfron": 6667,
      "Ġgiper": 6668,
      "Ġeva": 6669,
      "Ġwit": 6670,
      "Ġminut": 6671,
      "tiva": 6672,
      "ĠÂ£": 6673,
      "bel": 6674,
      "Ġwe": 6675,
      "Ġsifatli": 6676,
      "lovlar": 6677,
      "Ġlaboratoriya": 6678,
      "onasi": 6679,
      "Ġborligini": 6680,
      "ĠIbro": 6681,
      "Ġ53": 6682,
      "Ġtaa": 6683,
      "siyalar": 6684,
      "ldirish": 6685,
      "hlar": 6686,
      "entlar": 6687,
      "rsatiladi": 6688,
      "Ġoke": 6689,
      "Ġkumush": 6690,
      "Ġturku": 6691,
      "Ġqich": 6692,
      "Ġegallaydi": 6693,
      "ldilar": 6694,
      "Ġintegral": 6695,
      "Ġijara": 6696,
      "Ġholatlar": 6697,
      "NO": 6698,
      "Ġqirq": 6699,
      "tellekt": 6700,
      "ĠAT": 6701,
      "ganiga": 6702,
      "Ġ77": 6703,
      "etsi": 6704,
      "orning": 6705,
      "Ġqalb": 6706,
      "Ġshil": 6707,
      "Ġortadi": 6708,
      "Ġchizma": 6709,
      "Ġaylangan": 6710,
      "Ġteore": 6711,
      "Ġrat": 6712,
      "mlik": 6713,
      "Ġmujassam": 6714,
      "fas": 6715,
      "07": 6716,
      "Ġaytadi": 6717,
      "Ġtasavvu": 6718,
      "radilar": 6719,
      "Ġkanal": 6720,
      "ĠMenga": 6721,
      "Ġqissa": 6722,
      "Ġiboratdir": 6723,
      "Ġtiklash": 6724,
      "ĠIV": 6725,
      "Ġtenglamasi": 6726,
      "ĠKeyinchalik": 6727,
      "Ġtomonida": 6728,
      "ĠAV": 6729,
      "Ġravshan": 6730,
      "Ġ59": 6731,
      "Ġnuqson": 6732,
      "Be": 6733,
      "ĠBalki": 6734,
      "sotsi": 6735,
      "Ġbelgilaydi": 6736,
      "Ġhukumati": 6737,
      "Ġtomchi": 6738,
      "llanadi": 6739,
      "nev": 6740,
      "batga": 6741,
      "Ġbron": 6742,
      "Ġyoyi": 6743,
      "sixi": 6744,
      "laganda": 6745,
      "Ġsonini": 6746,
      "Ġhovli": 6747,
      "Ġimkoniyatlari": 6748,
      "tek": 6749,
      "flar": 6750,
      "Ġxafa": 6751,
      "zgaruvchi": 6752,
      "Ġehtimol": 6753,
      "Ġrivojlan": 6754,
      "Ġnisbati": 6755,
      "yishiga": 6756,
      "Ġoshirilishi": 6757,
      "Ġaqliy": 6758,
      "ĠTurk": 6759,
      "ysun": 6760,
      "Ġnishon": 6761,
      "Ġ110": 6762,
      "chirish": 6763,
      "Ġkelmoqda": 6764,
      "ydin": 6765,
      "09": 6766,
      "Ġpayvand": 6767,
      "Ġtaraqqiy": 6768,
      "Ġstav": 6769,
      "ĠTabiiy": 6770,
      "ction": 6771,
      "mina": 6772,
      "ĠOlloh": 6773,
      "Ġboshidan": 6774,
      "shishi": 6775,
      "Ġkengay": 6776,
      "Ġbuyrak": 6777,
      "Ġbuyu": 6778,
      "yak": 6779,
      "Ġsalomat": 6780,
      "pp": 6781,
      "Ġbolalarni": 6782,
      "Ġrivojlanishiga": 6783,
      "Ġaziz": 6784,
      "Ġbez": 6785,
      "Ġapa": 6786,
      "Ġ1998": 6787,
      "nalishda": 6788,
      ".\"": 6789,
      "chilarga": 6790,
      "Ġ(\"": 6791,
      "Ġai": 6792,
      "ĠMus": 6793,
      "Ġkomi": 6794,
      "Ġmuammolar": 6795,
      "lyozma": 6796,
      "Ġharakatlari": 6797,
      "Ġmahalla": 6798,
      "Ġoti": 6799,
      "Ġkishilarning": 6800,
      "Ġyuziga": 6801,
      "bal": 6802,
      "qishga": 6803,
      "zur": 6804,
      "izmat": 6805,
      "ĠOldi": 6806,
      "Ġlahza": 6807,
      "Ġqilgani": 6808,
      "uka": 6809,
      "ĠZam": 6810,
      "Ġkichkina": 6811,
      "Ġkara": 6812,
      "ĠIqtisodiy": 6813,
      "Ġertalab": 6814,
      "Ġyopiq": 6815,
      "Ġsharq": 6816,
      "Ġnavbatda": 6817,
      "Ġestetik": 6818,
      "uvchanligi": 6819,
      "Ġnegi": 6820,
      "Ġtaolo": 6821,
      "lanar": 6822,
      "Ġaniqlang": 6823,
      "Ġfors": 6824,
      "Ġ................": 6825,
      "Ġmato": 6826,
      "ĠUzbekiston": 6827,
      "Ġaylanma": 6828,
      "itlar": 6829,
      "pus": 6830,
      "xu": 6831,
      "IQ": 6832,
      "Ġlav": 6833,
      "ĠAbdura": 6834,
      "Ġetar": 6835,
      "Ġanglash": 6836,
      "lmadim": 6837,
      "Ġ|": 6838,
      "UK": 6839,
      "ngdan": 6840,
      "Ġhuquqlari": 6841,
      "Ġmajmua": 6842,
      "Ġ66": 6843,
      "ĠXul": 6844,
      "Ġdisk": 6845,
      "Ġinshoot": 6846,
      "aniq": 6847,
      "ĠPod": 6848,
      "Ġsabr": 6849,
      "ĠMisol": 6850,
      "Ġyoza": 6851,
      "Ġfaoliyatida": 6852,
      "Ġtaqdirda": 6853,
      "Ġmendan": 6854,
      "Ġtashlanadi": 6855,
      "Ġifodalovchi": 6856,
      "ress": 6857,
      "Ġdifferensial": 6858,
      "Ġqav": 6859,
      "ĠIII": 6860,
      "Ġslu": 6861,
      "OTI": 6862,
      "Ġsazovor": 6863,
      "Ġqutu": 6864,
      "ĠNazorat": 6865,
      "Ġinsoniy": 6866,
      "Ġeo": 6867,
      "ĠPol": 6868,
      "Ġuka": 6869,
      "Ġjanob": 6870,
      "ĠMovarounna": 6871,
      "Ġbirikmalar": 6872,
      "uza": 6873,
      "Ġyetkaz": 6874,
      "Ġurf": 6875,
      "Ġmunosabatda": 6876,
      "Ġ1999": 6877,
      "Ġkame": 6878,
      "Ġ1996": 6879,
      "Ġvazirligi": 6880,
      "Ġoptimal": 6881,
      "kovi": 6882,
      "Ġboshlarida": 6883,
      "Ġyel": 6884,
      "Ġxususida": 6885,
      "Ġoldidan": 6886,
      "89": 6887,
      "Ġinshoo": 6888,
      "54": 6889,
      "Ġniyat": 6890,
      "Ġfaqatgina": 6891,
      "Ġtelefon": 6892,
      "Ġboshlanishi": 6893,
      "gandan": 6894,
      "ĠOv": 6895,
      "ĠNar": 6896,
      "Ġsamo": 6897,
      "Ġ%": 6898,
      "lobal": 6899,
      "ĠYet": 6900,
      "Ġqonuniy": 6901,
      "ĠHayot": 6902,
      "Ġtermo": 6903,
      "Ġ1997": 6904,
      "lloh": 6905,
      "87": 6906,
      "Ġtugun": 6907,
      "Ã³": 6908,
      "Ġdev": 6909,
      "ĠTaq": 6910,
      "stri": 6911,
      "nt": 6912,
      "mika": 6913,
      "Ġindu": 6914,
      "Ġyashaydi": 6915,
      "Ġolinishi": 6916,
      "tsen": 6917,
      "atiga": 6918,
      "Ġist": 6919,
      "Ġsizning": 6920,
      "Ġboq": 6921,
      "//": 6922,
      "maloq": 6923,
      "Ġriso": 6924,
      "Ġrivojlanadi": 6925,
      "ĠPer": 6926,
      "Ġmasji": 6927,
      "Ġpuxta": 6928,
      "UB": 6929,
      "Ġogoh": 6930,
      "Ġtaom": 6931,
      "Ġtadbirkorlik": 6932,
      "zosi": 6933,
      "onga": 6934,
      "Ġreak": 6935,
      "ynaydi": 6936,
      "Ġtopamiz": 6937,
      "chilikka": 6938,
      "Ġkunlar": 6939,
      "Ġyay": 6940,
      "Ġmetr": 6941,
      "ktyabr": 6942,
      "kas": 6943,
      "ĠUzoq": 6944,
      "Ġpayg": 6945,
      "lashtiruvchi": 6946,
      "tensiv": 6947,
      "Ġsanoati": 6948,
      "zoni": 6949,
      "Ġashyo": 6950,
      "ĠADA": 6951,
      "Ġdasta": 6952,
      "Ġ2001": 6953,
      "ĠNu": 6954,
      "Ġatalgan": 6955,
      "Ġaba": 6956,
      "________________": 6957,
      "Ġfaoliyatiga": 6958,
      "huquqiy": 6959,
      "qit": 6960,
      "vali": 6961,
      "latish": 6962,
      "Ġsovi": 6963,
      "ĠRim": 6964,
      "limdan": 6965,
      "lich": 6966,
      "Ġorada": 6967,
      "Ġsami": 6968,
      "Ġtatbiq": 6969,
      "gap": 6970,
      "ĠSog": 6971,
      "tre": 6972,
      "ual": 6973,
      "Ġhukmdor": 6974,
      "Ġodamlarni": 6975,
      "Ġhavza": 6976,
      "âĤ¬": 6977,
      "82": 6978,
      "Ġhisoblab": 6979,
      "Ġtasvirlangan": 6980,
      "lastik": 6981,
      "Ġtinchlik": 6982,
      "Ġ2004": 6983,
      "ĠHali": 6984,
      "Ġtaqdi": 6985,
      "Ġuyda": 6986,
      "ĠKenga": 6987,
      "Ġfarovon": 6988,
      "Ġnuk": 6989,
      "Ġfunksiyaning": 6990,
      "Ġsolinadi": 6991,
      "UQ": 6992,
      "Ġdesa": 6993,
      "xonalar": 6994,
      "tincha": 6995,
      "Ġarteriya": 6996,
      "Ã²": 6997,
      "Ġex": 6998,
      "Ġsolingan": 6999,
      "sel": 7000,
      "Ġbolam": 7001,
      "Ġ2005": 7002,
      "Ġkeksa": 7003,
      "chat": 7004,
      "Ġtutish": 7005,
      "tit": 7006,
      "Ġinda": 7007,
      "Ġyeb": 7008,
      "Ġroli": 7009,
      "Ġmoddalarning": 7010,
      "ĠBek": 7011,
      "ĠNur": 7012,
      "Ġxabardor": 7013,
      "rya": 7014,
      "Ġyaxshilash": 7015,
      "Ġbakteriya": 7016,
      "zog": 7017,
      "ldirib": 7018,
      "poniya": 7019,
      "rsatkichi": 7020,
      "Ġteshik": 7021,
      "Ġgrafik": 7022,
      "tuman": 7023,
      "vori": 7024,
      "Ġpoyta": 7025,
      "ĠBugungi": 7026,
      "Ġdunyoning": 7027,
      "ĠKichik": 7028,
      "ĠTalaba": 7029,
      "ZBEK": 7030,
      "az": 7031,
      "rmagan": 7032,
      "ĠTashqi": 7033,
      "miniy": 7034,
      "Ġinstituti": 7035,
      "Ġsani": 7036,
      "tirilishi": 7037,
      "Ġimtiyo": 7038,
      "chog": 7039,
      "Ġishdan": 7040,
      "rega": 7041,
      "Ġmarketing": 7042,
      "nni": 7043,
      "Ġqarori": 7044,
      "Ġvaqtning": 7045,
      "Ġqiya": 7046,
      "Ġketayotgan": 7047,
      "Ġniyati": 7048,
      "hunar": 7049,
      "ola": 7050,
      "dav": 7051,
      "kil": 7052,
      "Ġyugur": 7053,
      "stoya": 7054,
      "Ġtezda": 7055,
      "Ġyonda": 7056,
      "Ġsol": 7057,
      "-,": 7058,
      "Ġissle": 7059,
      "riat": 7060,
      "bov": 7061,
      "Ġborligi": 7062,
      "Ġazot": 7063,
      "Ġoqilona": 7064,
      "Ġolami": 7065,
      "yey": 7066,
      "Ġyotqi": 7067,
      "ĠXususan": 7068,
      "Ġtadbirlar": 7069,
      "Ġegadir": 7070,
      "Ġaloqador": 7071,
      "sno": 7072,
      "ĠAxborot": 7073,
      "ĠQadimgi": 7074,
      "Ġegallagan": 7075,
      "unyod": 7076,
      "tig": 7077,
      "Ġ99": 7078,
      "erlar": 7079,
      "ĠHarakat": 7080,
      "Ġqayna": 7081,
      "klari": 7082,
      "zit": 7083,
      "ssiq": 7084,
      "Ġsuvni": 7085,
      "Ġxom": 7086,
      "Ġsinte": 7087,
      "Ġfond": 7088,
      "ĠVal": 7089,
      "IV": 7090,
      "Ġturlarini": 7091,
      "xonasi": 7092,
      "Ġtayyorlanadi": 7093,
      "ĠUsmon": 7094,
      "MT": 7095,
      "Ġqodir": 7096,
      "64": 7097,
      "Ġinsonlar": 7098,
      "Ġsle": 7099,
      "ĠBeruniy": 7100,
      "Ġjoyiga": 7101,
      "Ġmej": 7102,
      "Ġoni": 7103,
      "iq": 7104,
      "ĠPrezident": 7105,
      "Ġtabiati": 7106,
      "Ġhammasini": 7107,
      "simliklarning": 7108,
      "one": 7109,
      "Ġtumani": 7110,
      "Ġdisser": 7111,
      "Ki": 7112,
      "Ġ2002": 7113,
      "Ġqilur": 7114,
      "Ġbad": 7115,
      "malarni": 7116,
      "Ġmarosim": 7117,
      "Ġzaxira": 7118,
      "Ġgapirib": 7119,
      "Ġhujjatlari": 7120,
      "les": 7121,
      "Ġodamga": 7122,
      "Ġkamida": 7123,
      "ilib": 7124,
      "iladi": 7125,
      "Ġyir": 7126,
      "67": 7127,
      "Ġaslo": 7128,
      "Ġhe": 7129,
      "Ġsiydik": 7130,
      "ĠQani": 7131,
      "ĠKasallik": 7132,
      "ilish": 7133,
      "nav": 7134,
      "ralgan": 7135,
      "Ġtexnologiyasi": 7136,
      "Ġozuqa": 7137,
      "Ġbilishi": 7138,
      "atkor": 7139,
      "Ġqutb": 7140,
      "Ġvakil": 7141,
      "Ġfoydalanishga": 7142,
      "yiladigan": 7143,
      "Ġkashf": 7144,
      "ĠTE": 7145,
      "qomat": 7146,
      "burug": 7147,
      "chig": 7148,
      "Ġhayotida": 7149,
      "lcham": 7150,
      "yatel": 7151,
      "zrati": 7152,
      ",.": 7153,
      "ĠMoliya": 7154,
      "ala": 7155,
      "lashtirishga": 7156,
      "chadi": 7157,
      "Ġkodek": 7158,
      "dedim": 7159,
      "Ġqava": 7160,
      "ĠSug": 7161,
      "Ġyallig": 7162,
      "Ġishlangan": 7163,
      "qirdi": 7164,
      "Ġwith": 7165,
      "Ġiltimos": 7166,
      "naf": 7167,
      "Ġyalpi": 7168,
      "Ġyuzini": 7169,
      "Ġsvya": 7170,
      "61": 7171,
      "ĠBobo": 7172,
      "dulla": 7173,
      "Yu": 7174,
      "Ġkorxonalari": 7175,
      "Ġgaplarni": 7176,
      "59": 7177,
      "Ġxususiyatiga": 7178,
      "Ġoqa": 7179,
      "Ġachchiq": 7180,
      "inch": 7181,
      "Ġyaku": 7182,
      "rd": 7183,
      "ĠADABIY": 7184,
      "Ġbuladi": 7185,
      "ĠKitob": 7186,
      "fsil": 7187,
      "Ġmuhtoj": 7188,
      "tsii": 7189,
      "skix": 7190,
      "tilish": 7191,
      "Cl": 7192,
      "Ġtexni": 7193,
      "Ġ64": 7194,
      "Ġpredme": 7195,
      "Ġsobiq": 7196,
      "Ġjarayonlari": 7197,
      "ĠĠĠĠĠĠĠĠĠĠĠĠĠĠĠĠĠĠĠ": 7198,
      "Ġshoi": 7199,
      "Ġkiritiladi": 7200,
      "Ġahvoli": 7201,
      "sig": 7202,
      "ĠCO": 7203,
      "lifi": 7204,
      "tepa": 7205,
      "sper": 7206,
      "bonat": 7207,
      "batini": 7208,
      "Ġ400": 7209,
      "qadar": 7210,
      "Ġberiladigan": 7211,
      "Ġmuammolarni": 7212,
      "gment": 7213,
      "Ġavtomat": 7214,
      "Ġmuze": 7215,
      "larimizning": 7216,
      "Ġibodat": 7217,
      "Ġchiziqlar": 7218,
      "Ġnazardan": 7219,
      "rama": 7220,
      "laroq": 7221,
      "ĠAbul": 7222,
      "Ġmajlis": 7223,
      "Ġ1991": 7224,
      "Shu": 7225,
      "mav": 7226,
      "bobi": 7227,
      "Ġifodasini": 7228,
      "Ġmaktabi": 7229,
      "Ġyuborgan": 7230,
      "Ġtaxta": 7231,
      "Ġmodeli": 7232,
      "Ġmunosabatlarni": 7233,
      "zlashti": 7234,
      "Ġsheki": 7235,
      "plangan": 7236,
      "Ġfizika": 7237,
      "lizm": 7238,
      "LIM": 7239,
      "Ġdedim": 7240,
      "ine": 7241,
      "oyaviy": 7242,
      "Ġchol": 7243,
      "sma": 7244,
      "taga": 7245,
      "Ġdek": 7246,
      "USH": 7247,
      "Ġster": 7248,
      "-.": 7249,
      "ĠYuqoridagi": 7250,
      "Ġdiag": 7251,
      "taba": 7252,
      "qibat": 7253,
      "Ġsevgi": 7254,
      "Ġberar": 7255,
      "Ġxor": 7256,
      "ĠAka": 7257,
      "Ġayting": 7258,
      "Ġnikoh": 7259,
      "Ġishqa": 7260,
      "Ġbosqichda": 7261,
      "Ġarzi": 7262,
      "Ġlashkar": 7263,
      "nosida": 7264,
      "qora": 7265,
      "Ġqiyos": 7266,
      "pri": 7267,
      "Ġolmagan": 7268,
      "qtisodi": 7269,
      "Ġbeda": 7270,
      "ĠHavo": 7271,
      "ĠÅĵ": 7272,
      "fologik": 7273,
      "Ġjurnali": 7274,
      "Ġ112": 7275,
      "ĠQanday": 7276,
      "Ġben": 7277,
      "Ġorasidan": 7278,
      "Ġ62": 7279,
      "ros": 7280,
      "Ġnatriy": 7281,
      "Ġquduq": 7282,
      "Ġnaz": 7283,
      "her": 7284,
      "Ġtarzi": 7285,
      "Ġxazina": 7286,
      "Ġekst": 7287,
      "chadan": 7288,
      "Ġfur": 7289,
      "Ġsakkiz": 7290,
      "Ġ92": 7291,
      "tol": 7292,
      "ĠQizil": 7293,
      "yangi": 7294,
      "Ġrahbari": 7295,
      "matli": 7296,
      "Si": 7297,
      "dining": 7298,
      "ĠHe": 7299,
      "tativ": 7300,
      "Ġteshi": 7301,
      "Ġtushuna": 7302,
      "Ġmasalani": 7303,
      "62": 7304,
      "Ġshakllan": 7305,
      "Ġwww": 7306,
      "satdan": 7307,
      "shorat": 7308,
      "Ġqilich": 7309,
      "53": 7310,
      "Ġfax": 7311,
      "Ġgen": 7312,
      "Ġsintez": 7313,
      "Ġshod": 7314,
      "doshlar": 7315,
      "Ġtarmoqlari": 7316,
      "lement": 7317,
      "hiyat": 7318,
      "68": 7319,
      "ĠSher": 7320,
      "Ġtonna": 7321,
      "langanligi": 7322,
      "Ġkamroq": 7323,
      "lishida": 7324,
      "Ġettiradi": 7325,
      "raydi": 7326,
      "ĠQis": 7327,
      "Ġzum": 7328,
      "Ġtushunib": 7329,
      "Ġtrak": 7330,
      "miyasi": 7331,
      "Ġtilda": 7332,
      "oyalar": 7333,
      "Ġï¿½ï¿½ï¿½ï¿½ï¿½ï¿½ï¿½ï¿½ï¿½ï¿½ï¿½ï¿½ï¿½ï¿½ï¿½ï¿½": 7334,
      "Ġturmu": 7335,
      "Ġfarqlanadi": 7336,
      "Ġkasalliklar": 7337,
      "93": 7338,
      "Ġdax": 7339,
      "liklarga": 7340,
      "ĠTashkent": 7341,
      "Ġmam": 7342,
      "âĢĶâĢĶâĢĶâĢĶ": 7343,
      "Ġpedagog": 7344,
      "Ġtashkilotlari": 7345,
      "Ġkaliy": 7346,
      "Ġkafe": 7347,
      "Ġferment": 7348,
      "graf": 7349,
      "Ġtark": 7350,
      "ĠRasul": 7351,
      "ysa": 7352,
      "Â°": 7353,
      "Ġxodimlari": 7354,
      "rimda": 7355,
      "linik": 7356,
      "Ġojiz": 7357,
      "chilarni": 7358,
      "alar": 7359,
      "Ġtasnif": 7360,
      "Ġ1992": 7361,
      "shliq": 7362,
      "Ġbit": 7363,
      "Ġxayr": 7364,
      "chit": 7365,
      "Ġsabza": 7366,
      "ĠKomp": 7367,
      "Ġ2003": 7368,
      "lyat": 7369,
      "Ġyunon": 7370,
      "Ġjoylashadi": 7371,
      "Ġmateriallari": 7372,
      "yom": 7373,
      "zingni": 7374,
      "Ġdehqonchilik": 7375,
      "ĠGeo": 7376,
      "ĠMirza": 7377,
      "Ġuchastka": 7378,
      "Ġyuklama": 7379,
      "Ġkitobxon": 7380,
      "Ġobrazo": 7381,
      "Ġmubo": 7382,
      "Ġbiridir": 7383,
      "ĠHaq": 7384,
      "Ġzarracha": 7385,
      "lanishni": 7386,
      "latlar": 7387,
      "ishlab": 7388,
      "Ġstol": 7389,
      "Ġzot": 7390,
      "Ġtura": 7391,
      "bola": 7392,
      "Ġbatafsil": 7393,
      "Ġshekilli": 7394,
      "Ġchetga": 7395,
      "Ġkunlari": 7396,
      "Ġhayotga": 7397,
      "Ġhayotda": 7398,
      "doni": 7399,
      "shing": 7400,
      "Ġqurib": 7401,
      "Ġyulduz": 7402,
      "Qi": 7403,
      "Ġfone": 7404,
      "Ġfayla": 7405,
      "Ġmahorat": 7406,
      "ĠJanubiy": 7407,
      "fu": 7408,
      "rishib": 7409,
      "qirib": 7410,
      "kari": 7411,
      "masidan": 7412,
      "Ġqanaqa": 7413,
      "nak": 7414,
      "lono": 7415,
      "cc": 7416,
      "ĠEn": 7417,
      "KA": 7418,
      "Ġfido": 7419,
      "Ġalmashinuvi": 7420,
      "Ġtakje": 7421,
      "Ġolo": 7422,
      "ozi": 7423,
      "Ġquvvati": 7424,
      "tishda": 7425,
      "Ġhush": 7426,
      "ĠAslida": 7427,
      "ĠTabiat": 7428,
      "tivi": 7429,
      "âĪ": 7430,
      "!..": 7431,
      "qigan": 7432,
      "Ġpedagogika": 7433,
      "ÃŃ": 7434,
      "Ġrabot": 7435,
      "shil": 7436,
      "ĠIchki": 7437,
      "Ġsherik": 7438,
      "Ġaxboro": 7439,
      "79": 7440,
      "nalgan": 7441,
      "Ġï¿½ï¿½ï¿½ï¿½ï¿½ï¿½ï¿½ï¿½ï¿½ï¿½ï¿½": 7442,
      "Ġbechora": 7443,
      "Ġbirining": 7444,
      "Ġishtirokida": 7445,
      "Ġimpul": 7446,
      "Ġbax": 7447,
      "hm": 7448,
      "jeniye": 7449,
      "Ġintensiv": 7450,
      "allif": 7451,
      "Ġbuzilish": 7452,
      "Ġboshqaruvi": 7453,
      "Ġhududiy": 7454,
      "Ġsilindr": 7455,
      "FF": 7456,
      "Ġiqlim": 7457,
      "ĠÂ«Â»": 7458,
      "yod": 7459,
      "Ġshovqin": 7460,
      "loli": 7461,
      "Ġkundalik": 7462,
      "YA": 7463,
      "Ġbolalarga": 7464,
      "Ġgosudar": 7465,
      "soli": 7466,
      "ĠDis": 7467,
      "uddin": 7468,
      "zika": 7469,
      "Ġmayli": 7470,
      "Ġmiqyo": 7471,
      "Ġtikilib": 7472,
      "Ġdarajasida": 7473,
      "ĠTay": 7474,
      "toni": 7475,
      "kimyoviy": 7476,
      "Ã«": 7477,
      "ĠGu": 7478,
      "Ġdarrov": 7479,
      "ullar": 7480,
      "ektar": 7481,
      "Ġkelmaydi": 7482,
      "lee": 7483,
      "Ġolishni": 7484,
      "Ġariq": 7485,
      "Ġolg": 7486,
      "band": 7487,
      "lyapti": 7488,
      "qligi": 7489,
      "Ġulgur": 7490,
      "Ġzararli": 7491,
      "Ġdomla": 7492,
      "nomalar": 7493,
      "ĠFuqaro": 7494,
      "lgandan": 7495,
      "Ġimkoniyatini": 7496,
      "Ġyerlar": 7497,
      "Ġdosto": 7498,
      "rilmoqda": 7499,
      "poya": 7500,
      "laming": 7501,
      "unt": 7502,
      "Ġhikmat": 7503,
      "Ġzavq": 7504,
      "Ġjonim": 7505,
      "ted": 7506,
      "Ġ71": 7507,
      "liyo": 7508,
      "alati": 7509,
      "bit": 7510,
      "Ġsti": 7511,
      "shti": 7512,
      "Ġbermaydi": 7513,
      "Ġdov": 7514,
      "SA": 7515,
      "ĠOsiyoda": 7516,
      "Ġustki": 7517,
      "Ġdarajadagi": 7518,
      "Ġid": 7519,
      "Ġuzra": 7520,
      "qaloq": 7521,
      "nalishlari": 7522,
      "Ġkuchaytirish": 7523,
      "Ġsheva": 7524,
      "Agar": 7525,
      "rey": 7526,
      "Ġetno": 7527,
      "Ġkelaja": 7528,
      "rgazma": 7529,
      "onalar": 7530,
      "Ġnimalar": 7531,
      "Ġaniqlab": 7532,
      "sent": 7533,
      "Ġboshim": 7534,
      "hla": 7535,
      "SIYA": 7536,
      "Ġcharcha": 7537,
      "Ġqimir": 7538,
      "aya": 7539,
      "Ġnemis": 7540,
      "qor": 7541,
      "Ġeksport": 7542,
      "Ġtasodifiy": 7543,
      "Ġxohi": 7544,
      "Ġmakro": 7545,
      "Ġ1995": 7546,
      "ĠYaqin": 7547,
      "hal": 7548,
      "Ġtalablariga": 7549,
      "Ġmulki": 7550,
      "kri": 7551,
      "ganidek": 7552,
      "Ġuchburchak": 7553,
      "katta": 7554,
      "qanday": 7555,
      "eng": 7556,
      "Ġpozi": 7557,
      "xush": 7558,
      "Ġxodimlar": 7559,
      "valent": 7560,
      "shning": 7561,
      "Ġchiqindi": 7562,
      "pto": 7563,
      "ĠAvva": 7564,
      "kda": 7565,
      "Ġyaxshilik": 7566,
      "Ġnashriyoti": 7567,
      "shix": 7568,
      "skop": 7569,
      "Ġziddiyat": 7570,
      "Ġodamlarga": 7571,
      "Ġdengi": 7572,
      "ĠMol": 7573,
      "orozi": 7574,
      "rono": 7575,
      "Ġ63": 7576,
      "Shar": 7577,
      "ĠYaponiya": 7578,
      "kichik": 7579,
      "Ġfoizi": 7580,
      "Ġcos": 7581,
      "yotini": 7582,
      "larimizni": 7583,
      "Ġnuqtalar": 7584,
      "onni": 7585,
      "ltiq": 7586,
      "gorit": 7587,
      "verdi": 7588,
      "Ġtuziladi": 7589,
      "Ġpish": 7590,
      "rishini": 7591,
      "Ġhayotning": 7592,
      "Ġyavlya": 7593,
      "Ġfaylasu": 7594,
      "Ġafzal": 7595,
      "Ġikkilamchi": 7596,
      "Ġuchraydigan": 7597,
      "Ġsaqlanadi": 7598,
      "Ġqiymatlari": 7599,
      "lganidek": 7600,
      "ĠXullas": 7601,
      "ĠChor": 7602,
      "ĠAmu": 7603,
      "sheniya": 7604,
      "Ġbunyod": 7605,
      "ĠTran": 7606,
      "yr": 7607,
      "Ġmuassasalari": 7608,
      "qachon": 7609,
      "Ġyugurib": 7610,
      "ĠJuda": 7611,
      "barcha": 7612,
      "klyu": 7613,
      "ylama": 7614,
      "rilsa": 7615,
      "Ġfikrni": 7616,
      "Ġenerge": 7617,
      "ĠAq": 7618,
      "ĠKorxona": 7619,
      "ĠVI": 7620,
      "Ġnuqtada": 7621,
      "rova": 7622,
      "lifa": 7623,
      "kg": 7624,
      "onat": 7625,
      "Ġ2017": 7626,
      "Ġasosini": 7627,
      "lohida": 7628,
      "birini": 7629,
      "Ali": 7630,
      "doz": 7631,
      "Ġyee": 7632,
      "Ġpolimer": 7633,
      "Ġbeg": 7634,
      "Ġxoli": 7635,
      "Ġborliq": 7636,
      "larimni": 7637,
      "Ġqolar": 7638,
      "larin": 7639,
      "Ġmatbu": 7640,
      "ĠArab": 7641,
      "ĠMamlakat": 7642,
      "minlovchi": 7643,
      "risi": 7644,
      "yotir": 7645,
      "Ġkema": 7646,
      "Ġyetishi": 7647,
      "Ġbosqichida": 7648,
      "sozlik": 7649,
      "Ġnasi": 7650,
      "Ġpolu": 7651,
      "Ġtayyorgar": 7652,
      "Ġzanji": 7653,
      "Ġoppoq": 7654,
      "Ġxiy": 7655,
      "Ġ67": 7656,
      "ĠShay": 7657,
      ".),": 7658,
      "Ġbuki": 7659,
      "Ġhartomonlama": 7660,
      "Ġchiroq": 7661,
      "ĠUlardan": 7662,
      "Ġkeldim": 7663,
      "ĠErkin": 7664,
      "Ġkombi": 7665,
      "83": 7666,
      "votir": 7667,
      "Ġhosila": 7668,
      "Ġkuchini": 7669,
      "Ġsaylov": 7670,
      "Ġbitim": 7671,
      "Ġsarfi": 7672,
      "Ġfuqarolar": 7673,
      "Ġfav": 7674,
      "sharoit": 7675,
      "Ġboylik": 7676,
      "pur": 7677,
      "vogo": 7678,
      "shid": 7679,
      "69": 7680,
      "Ġnuqtasi": 7681,
      "ĠXIX": 7682,
      "shinchi": 7683,
      "Ġkeltirgan": 7684,
      "Ġnolga": 7685,
      "Ġoldim": 7686,
      "ziyo": 7687,
      "ĠAR": 7688,
      "Ġtilini": 7689,
      "Ġyaqi": 7690,
      "Ġqani": 7691,
      "dush": 7692,
      "Ġ1990": 7693,
      "Ġtarixida": 7694,
      "Ġhas": 7695,
      "ĠÂ«?!": 7696,
      "gene": 7697,
      "lyatsiya": 7698,
      "taning": 7699,
      "batlantirish": 7700,
      "Ġsurish": 7701,
      "oi": 7702,
      "Ġshidda": 7703,
      "eb": 7704,
      "xov": 7705,
      "Ġrais": 7706,
      "ĠBerilgan": 7707,
      "Ġkimning": 7708,
      "Ġburchagi": 7709,
      "Ġberki": 7710,
      "ngul": 7711,
      "Ġyillarida": 7712,
      "Ġ2010": 7713,
      "Ġmehribon": 7714,
      "Ġbuxgalteriya": 7715,
      "xabar": 7716,
      "ĠBularning": 7717,
      "Ġmuvaffaqiyatli": 7718,
      "novi": 7719,
      "rek": 7720,
      "Ġnasos": 7721,
      "Ġingichka": 7722,
      "Ġshogir": 7723,
      "Ġneyt": 7724,
      "Ġqorish": 7725,
      "hhor": 7726,
      "ĠQodiriy": 7727,
      "yladi": 7728,
      "Ġdarajali": 7729,
      "burg": 7730,
      "Ġmatritsa": 7731,
      "Ġgrammatik": 7732,
      "Ġholatlarda": 7733,
      "gisi": 7734,
      "Ġzaruriy": 7735,
      "ĠKal": 7736,
      "Ġ2008": 7737,
      "Ġqotib": 7738,
      "Ġstro": 7739,
      "zot": 7740,
      "cheskiy": 7741,
      "orga": 7742,
      "Ġagro": 7743,
      "Ġoshishi": 7744,
      "Ġxizmatlari": 7745,
      "Ġazi": 7746,
      "taro": 7747,
      "Ġolishda": 7748,
      "Ġ222": 7749,
      "Ġkosa": 7750,
      "Ġoshirilgan": 7751,
      "yud": 7752,
      "Ġtergov": 7753,
      "king": 7754,
      "Ġfanining": 7755,
      "Ġyetdi": 7756,
      "Ġtig": 7757,
      "lanishning": 7758,
      "Ġpur": 7759,
      "qayta": 7760,
      "tishni": 7761,
      "rob": 7762,
      "lansin": 7763,
      "Ġbajarilgan": 7764,
      "tgacha": 7765,
      "Ġkechasi": 7766,
      "Ġshilliq": 7767,
      "Ġmamlakatda": 7768,
      "Ġchiz": 7769,
      "Ġbahs": 7770,
      "cy": 7771,
      "Ġbolalarda": 7772,
      "Ġbuyumlar": 7773,
      "Ġtaalluqli": 7774,
      "ĠHisob": 7775,
      "Ġyopish": 7776,
      "OLOG": 7777,
      "oniy": 7778,
      "Ġmanfiy": 7779,
      "lir": 7780,
      "Ġkomissiya": 7781,
      "Ġchekka": 7782,
      "lishidan": 7783,
      "Ġjarayonlarni": 7784,
      "yohat": 7785,
      "Ġhajmini": 7786,
      "Ġhus": 7787,
      "Ġsolig": 7788,
      "zani": 7789,
      "jil": 7790,
      "ns": 7791,
      "Ġmexanizmi": 7792,
      "kislota": 7793,
      "Ġyerlarda": 7794,
      "Ġkoz": 7795,
      "Ġjun": 7796,
      "Ġpoz": 7797,
      "ĠChunonchi": 7798,
      "Ġkiruvchi": 7799,
      "Ġfarzandi": 7800,
      "63": 7801,
      "oyasi": 7802,
      "ation": 7803,
      "tual": 7804,
      "ydim": 7805,
      "cham": 7806,
      "rai": 7807,
      "ĠIm": 7808,
      "Ġhomila": 7809,
      "chli": 7810,
      "uruh": 7811,
      "Ġ74": 7812,
      "yman": 7813,
      "Ġboj": 7814,
      "ttiz": 7815,
      "DAN": 7816,
      "rganishda": 7817,
      "Ġxun": 7818,
      "uf": 7819,
      "Ġinnovatsion": 7820,
      "mib": 7821,
      "ĠShimoliy": 7822,
      "Ġquti": 7823,
      "alistik": 7824,
      "Ġaaa": 7825,
      "Ġintellekt": 7826,
      "ĠZul": 7827,
      "taman": 7828,
      "Ġforma": 7829,
      "dia": 7830,
      "ple": 7831,
      "javob": 7832,
      "Ġpasay": 7833,
      "Ġchulg": 7834,
      "Ġoshirishda": 7835,
      "Ġtushirish": 7836,
      "Ġborsa": 7837,
      "Ġemasmi": 7838,
      "Ġxalqlari": 7839,
      "ĠFoyda": 7840,
      "fakki": 7841,
      "Ġsara": 7842,
      "logiyasi": 7843,
      "Ġallo": 7844,
      "tarilgan": 7845,
      "Ġkomplek": 7846,
      "Ġkuz": 7847,
      "Ġpsixi": 7848,
      "Ġyaroq": 7849,
      "lsangiz": 7850,
      "ĠQO": 7851,
      "Ġjamiyatda": 7852,
      "Ġbei": 7853,
      "Ġyetuk": 7854,
      "ĠTez": 7855,
      "ĠAfrika": 7856,
      "Ġbilar": 7857,
      "Ġtest": 7858,
      "Ġkamayib": 7859,
      "Ġyilning": 7860,
      "Ġobyekti": 7861,
      "llan": 7862,
      "ĠXuro": 7863,
      "Ġmuqo": 7864,
      "rada": 7865,
      "Ġilohiy": 7866,
      "Ġshoshi": 7867,
      "ĠOrgani": 7868,
      "Ġqoplangan": 7869,
      "unkali": 7870,
      "Ġkali": 7871,
      "ĠPul": 7872,
      "Ġqilmay": 7873,
      "liqligi": 7874,
      "qtisodiyot": 7875,
      "ĠShirin": 7876,
      "Ġzor": 7877,
      "Ġholatida": 7878,
      "ĠXol": 7879,
      "Ġkonser": 7880,
      "randa": 7881,
      "ĠHasan": 7882,
      "Ġvazifalar": 7883,
      "Ġochilib": 7884,
      "rasiz": 7885,
      "dun": 7886,
      "Ġboricha": 7887,
      "mlaka": 7888,
      "stiq": 7889,
      "tirar": 7890,
      "Ġtel": 7891,
      "ĠNavoiyning": 7892,
      "ĠAfg": 7893,
      "pra": 7894,
      "ILI": 7895,
      "Ġraqib": 7896,
      "Ġshayx": 7897,
      "Ġsham": 7898,
      "stki": 7899,
      "Ġqol": 7900,
      "mangan": 7901,
      "Ġdavriy": 7902,
      "tido": 7903,
      "ino": 7904,
      "Ġqonunlar": 7905,
      "Ġkalta": 7906,
      "Ġtomoniga": 7907,
      "parati": 7908,
      "ĠĠĠĠĠĠĠĠčĊ": 7909,
      "ds": 7910,
      "Ġdvigatel": 7911,
      "Ġolindi": 7912,
      "ĠQaysi": 7913,
      "Ġizchil": 7914,
      "mashq": 7915,
      "ĠBemor": 7916,
      "tirgich": 7917,
      "rganishga": 7918,
      "ĠMashina": 7919,
      "nut": 7920,
      "Ġtilining": 7921,
      "ĠXon": 7922,
      "ĠIsmo": 7923,
      "gram": 7924,
      "Ġbuyurtma": 7925,
      "Ġqaytarib": 7926,
      "Ġxaro": 7927,
      "Ġqiyna": 7928,
      "Ġaylab": 7929,
      "Ġsharh": 7930,
      "ĠMag": 7931,
      "Ġegalik": 7932,
      "mbra": 7933,
      "ĠBinobarin": 7934,
      "ĠYil": 7935,
      "Ġamp": 7936,
      "Ġshikoyat": 7937,
      "Ġqaramasdan": 7938,
      "Ġaffi": 7939,
      "zalar": 7940,
      "Ġ2007": 7941,
      "Ġperpen": 7942,
      "Ġimkoniyatlarini": 7943,
      "Ġmanzi": 7944,
      "Ġqalinligi": 7945,
      "Ġwor": 7946,
      "tadan": 7947,
      "Ġvazifalarini": 7948,
      "Ġqilishdan": 7949,
      "chim": 7950,
      "Ġatrofidagi": 7951,
      "Ġchiqiladi": 7952,
      "Ġste": 7953,
      "taj": 7954,
      "Ġvij": 7955,
      "ĠMovarounnahr": 7956,
      "mizdagi": 7957,
      "ylak": 7958,
      "Ġbemalol": 7959,
      "voj": 7960,
      "ĠRea": 7961,
      "Ġ84": 7962,
      "Ġkadrlar": 7963,
      "qulo": 7964,
      "Ġing": 7965,
      "Ġehtiyoji": 7966,
      "Ġxarakte": 7967,
      "tag": 7968,
      "Ġuchrashuv": 7969,
      "roziya": 7970,
      "Ġaniqlashda": 7971,
      "ĠAnd": 7972,
      "dofa": 7973,
      "Ġtro": 7974,
      "chilikning": 7975,
      "Ġyaqinlash": 7976,
      "Ġshuki": 7977,
      "Ġetiladigan": 7978,
      "Ġtafakku": 7979,
      "stve": 7980,
      "Ġkunga": 7981,
      "Ġkechadi": 7982,
      "vid": 7983,
      "Ġ2006": 7984,
      "remen": 7985,
      "vaya": 7986,
      "Ġyaxshiroq": 7987,
      "nosib": 7988,
      "Ġkine": 7989,
      "haqiqat": 7990,
      "Ġoling": 7991,
      "honiy": 7992,
      "Ġyashovchi": 7993,
      "geo": 7994,
      "Ġoshirib": 7995,
      "Ġsavdogar": 7996,
      "kret": 7997,
      "Mar": 7998,
      "llarda": 7999,
      "liligi": 8000,
      "Ã°": 8001,
      "Ġinobatga": 8002,
      "Ġfransuz": 8003,
      "Ġyerdagi": 8004,
      "Ġishning": 8005,
      "Ġkamayishi": 8006,
      "Ġbirorta": 8007,
      "Ġanga": 8008,
      "prog": 8009,
      "Ġtalabi": 8010,
      "Ġxud": 8011,
      "Ġmushk": 8012,
      "Ġsulo": 8013,
      "Ġgektar": 8014,
      "Ab": 8015,
      "Ġ61": 8016,
      "Ġdes": 8017,
      "IDA": 8018,
      "ĠRespub": 8019,
      "ĠIS": 8020,
      "iya": 8021,
      "jayin": 8022,
      "Ġfiziologik": 8023,
      "Ġtizimiga": 8024,
      "ĠMul": 8025,
      "Za": 8026,
      "Ġnorozi": 8027,
      "qmi": 8028,
      "yning": 8029,
      "satsiya": 8030,
      "Ġkaf": 8031,
      "Ġavj": 8032,
      "Ġasosda": 8033,
      "Ê¼": 8034,
      "Ġvaraq": 8035,
      "Ġae": 8036,
      "taliya": 8037,
      "JA": 8038,
      "Ġshaxslarning": 8039,
      "zator": 8040,
      "Ġvoha": 8041,
      "Ġarxeo": 8042,
      "ĠOltin": 8043,
      "shg": 8044,
      "Ġposle": 8045,
      "Ġfikrlash": 8046,
      "chirib": 8047,
      "Ġxalqining": 8048,
      "Ġyem": 8049,
      "ruz": 8050,
      "cheskaya": 8051,
      "ĠOila": 8052,
      "eniya": 8053,
      "boz": 8054,
      "Ġhaddan": 8055,
      "Ġ69": 8056,
      "Ġevaziga": 8057,
      "Ġtizimlari": 8058,
      "Ġfilo": 8059,
      "ĠÎ": 8060,
      "mirlash": 8061,
      "cher": 8062,
      "Ġjino": 8063,
      "Ġyemi": 8064,
      "Ġturibdiki": 8065,
      "judi": 8066,
      "Ġyetishtirish": 8067,
      "blar": 8068,
      "bop": 8069,
      "shiriq": 8070,
      "kadi": 8071,
      "Ġkata": 8072,
      "Ġchiqargan": 8073,
      "Ġideal": 8074,
      "Ġsalohiyati": 8075,
      "Ġnomlari": 8076,
      "Ġochish": 8077,
      "iroq": 8078,
      "rnatiladi": 8079,
      "Ġchegarasi": 8080,
      "urtqa": 8081,
      "Ġmanfaatlarini": 8082,
      "Ġraqam": 8083,
      "Ġkambag": 8084,
      "Ġmatematika": 8085,
      "Ġmaktub": 8086,
      "RO": 8087,
      "hna": 8088,
      "Ġoyida": 8089,
      "Ġsulfat": 8090,
      "Ġkolle": 8091,
      "raja": 8092,
      "ladimi": 8093,
      "Ġxala": 8094,
      "Ġvirus": 8095,
      "rush": 8096,
      "Ġberishni": 8097,
      "ĠRay": 8098,
      "Ġipak": 8099,
      "Ġ68": 8100,
      "Ġproyeksiya": 8101,
      "tuv": 8102,
      "Ġindek": 8103,
      "Ġaksi": 8104,
      "Ġqatoriga": 8105,
      "Ġshaklidagi": 8106,
      "Ġcholg": 8107,
      "Ġslo": 8108,
      "Ġgeometrik": 8109,
      "kak": 8110,
      "Ã©": 8111,
      "ngmi": 8112,
      "Ġpaytlarda": 8113,
      "Ġsolgan": 8114,
      "Ġharakatini": 8115,
      "neniya": 8116,
      "Ġmumkinligini": 8117,
      "Ġmuammolari": 8118,
      "Ġplastin": 8119,
      "Ġellik": 8120,
      "turasi": 8121,
      "Ġiztiro": 8122,
      "ĠQoraqal": 8123,
      "terial": 8124,
      "Ġdini": 8125,
      "ĠMavzu": 8126,
      "Ġbet": 8127,
      "Ġunumdor": 8128,
      "afur": 8129,
      "yaning": 8130,
      "Ġpunk": 8131,
      "Ġtomonlama": 8132,
      "qaruv": 8133,
      "rquv": 8134,
      "rina": 8135,
      "Ġtayoq": 8136,
      "Ġ250": 8137,
      "Ġdoktori": 8138,
      "uvon": 8139,
      "ĠQut": 8140,
      "ker": 8141,
      "Ġolmas": 8142,
      "Ġmaydonga": 8143,
      "Ġ78": 8144,
      "zovta": 8145,
      "Ġmuallifi": 8146,
      "Ġfoji": 8147,
      "his": 8148,
      "Ġostidagi": 8149,
      "Ġmanbalari": 8150,
      "Ġrahbarlik": 8151,
      "Ġshafqat": 8152,
      "Ġasli": 8153,
      "Ġkasalligi": 8154,
      "ĠAngliya": 8155,
      "xalq": 8156,
      "misol": 8157,
      "zaga": 8158,
      "yda": 8159,
      "Ġtushuntirib": 8160,
      "havo": 8161,
      "Ġfikrini": 8162,
      "Ġziyod": 8163,
      "Ġpanja": 8164,
      "ĠYoki": 8165,
      "Ġepo": 8166,
      "alek": 8167,
      "Ġyozing": 8168,
      "Ġhavas": 8169,
      "zaning": 8170,
      "Ġdepu": 8171,
      "Ġmisollar": 8172,
      "ĠMustaqil": 8173,
      "ĠEri": 8174,
      "Ġasoslanib": 8175,
      "Ġsilliq": 8176,
      "Ġqobiliyatini": 8177,
      "ved": 8178,
      "itrat": 8179,
      "ĠIshlabchiqarish": 8180,
      "Ġyashaydigan": 8181,
      "zdi": 8182,
      "Ġqizg": 8183,
      "Ġsanaladi": 8184,
      "payib": 8185,
      "Ġxarita": 8186,
      "Ġmavj": 8187,
      "Ġbuyrug": 8188,
      "Ġlayo": 8189,
      "Ġ82": 8190,
      "Ġmao": 8191,
      "Ġhisobidan": 8192,
      "Ġjiz": 8193,
      "Ġaylantirish": 8194,
      "Ġsahna": 8195,
      "Ġvek": 8196,
      "tran": 8197,
      "ĠFA": 8198,
      "ĠUrug": 8199,
      "Ġorasiga": 8200,
      "meni": 8201,
      "Ġimkoni": 8202,
      "ĠYig": 8203,
      "Ġsanab": 8204,
      "tekt": 8205,
      "Ġ107": 8206,
      "Ġtomonda": 8207,
      "Ġishlaydigan": 8208,
      "Ġulushi": 8209,
      "Ġegallab": 8210,
      "Ġasarning": 8211,
      "Ġtalaffuz": 8212,
      "Ġbilmas": 8213,
      "Ġbilasiz": 8214,
      "Ġekonomi": 8215,
      "Mo": 8216,
      "Ġkap": 8217,
      "Ġimperiya": 8218,
      "Ġotib": 8219,
      "arod": 8220,
      "Ġlaz": 8221,
      "KI": 8222,
      "stana": 8223,
      "ssar": 8224,
      "ĠSud": 8225,
      "Ġsamaradorligi": 8226,
      "Ġmoyil": 8227,
      "filak": 8228,
      "lumotlarga": 8229,
      "Ġqizlar": 8230,
      "Ġyerosti": 8231,
      "Ġyuboriladi": 8232,
      "ĠJamiyat": 8233,
      "ĠMux": 8234,
      "ĠYA": 8235,
      "Ġaytishi": 8236,
      "ayli": 8237,
      "Ġquyidagilarni": 8238,
      "Ġtaxmin": 8239,
      "ĠIbrohim": 8240,
      "Ġodatdagi": 8241,
      "trat": 8242,
      "Ġcham": 8243,
      "Ġhayotini": 8244,
      "Fa": 8245,
      "vini": 8246,
      "Ġqaytadan": 8247,
      "Ġshular": 8248,
      "Ġkoeffitsi": 8249,
      "Ġittifoq": 8250,
      "Is": 8251,
      "Ġqimmatbaho": 8252,
      "ĠXuroson": 8253,
      "Ġbilaman": 8254,
      "Ġediki": 8255,
      "Ġkonden": 8256,
      "Ġchelov": 8257,
      "tanat": 8258,
      "Ġeksper": 8259,
      "Ġxolda": 8260,
      "Ġolis": 8261,
      "noz": 8262,
      "Ġhujayralar": 8263,
      "Ġinsonni": 8264,
      "Ġmutaxassislar": 8265,
      "ĠYurak": 8266,
      "Ġsabablari": 8267,
      "nikov": 8268,
      "UZ": 8269,
      "sr": 8270,
      "ĠMada": 8271,
      "Ġturiga": 8272,
      "sgan": 8273,
      "pish": 8274,
      "jjat": 8275,
      "Ġfosfor": 8276,
      "Ġtopil": 8277,
      "Ġvazifani": 8278,
      "ĠĠĠĠĠĠĠĠĠčĊ": 8279,
      "magnit": 8280,
      "pga": 8281,
      "sinlar": 8282,
      "Ġhuquqiga": 8283,
      "ĠIskandar": 8284,
      "Ġraisi": 8285,
      "shanba": 8286,
      "Ġmuha": 8287,
      "Ġgeografiya": 8288,
      "siyat": 8289,
      "Ġfermer": 8290,
      "ĠMuso": 8291,
      "Ġ73": 8292,
      "Ġnazorati": 8293,
      "Ġmikroorganizm": 8294,
      "mna": 8295,
      "Ġmuharrir": 8296,
      "Ġadabiyotlar": 8297,
      "Ġasir": 8298,
      "Ġ97": 8299,
      "Ġbunaqa": 8300,
      "Ġkommu": 8301,
      "jda": 8302,
      "Ġsovg": 8303,
      "ĠMasa": 8304,
      "Ġtashvish": 8305,
      "Ġfas": 8306,
      "ces": 8307,
      "Ġafsona": 8308,
      "Ġpasayishi": 8309,
      "jan": 8310,
      "Ġtaqsimlash": 8311,
      "ĠSaid": 8312,
      "Ġ94": 8313,
      "Ġkomil": 8314,
      "Ġekvi": 8315,
      "ope": 8316,
      "Ġxalifa": 8317,
      "Ġboradigan": 8318,
      "Ġongli": 8319,
      "kori": 8320,
      "ĠFay": 8321,
      "Ġqilinayotgan": 8322,
      "Ġtarixini": 8323,
      "ĠISH": 8324,
      "Ġ76": 8325,
      "Ġdarslik": 8326,
      "lganlar": 8327,
      "Ġ1994": 8328,
      "Ġbolani": 8329,
      "oniston": 8330,
      "Ġbozori": 8331,
      "ilo": 8332,
      "Ġunchalik": 8333,
      "sari": 8334,
      "ĠAvto": 8335,
      "Ġyasov": 8336,
      "Ġqatori": 8337,
      "Ġalomat": 8338,
      "shay": 8339,
      "Ġishlaydi": 8340,
      "Ġkvar": 8341,
      "Ġ(-": 8342,
      "pg": 8343,
      "Ġhayotining": 8344,
      "Ġchegaralangan": 8345,
      "tekis": 8346,
      "Ġistiqomat": 8347,
      "Ġguruhlar": 8348,
      "ĠOn": 8349,
      "CHA": 8350,
      "Ġhuzuriga": 8351,
      "ZBEKIST": 8352,
      "ffitsiy": 8353,
      "ozlar": 8354,
      "qurun": 8355,
      "qlar": 8356,
      "Ġtushish": 8357,
      "Ġsavollari": 8358,
      "Ġtavsifi": 8359,
      "Ġyurituvchi": 8360,
      "zilib": 8361,
      "Ġeslab": 8362,
      "rizm": 8363,
      "Ġraqamli": 8364,
      "Ġboshlanib": 8365,
      "Ġasab": 8366,
      "Ġibora": 8367,
      "Ġkontak": 8368,
      "Ġjag": 8369,
      "Ġkelgani": 8370,
      "xar": 8371,
      "Ġnatijalarini": 8372,
      "ENT": 8373,
      "ĠYog": 8374,
      "Ġuslubiy": 8375,
      "ssalom": 8376,
      "vest": 8377,
      "Ġkifo": 8378,
      "Ġxonadon": 8379,
      "Ġtermin": 8380,
      "Ġaning": 8381,
      "sit": 8382,
      "Ġ2009": 8383,
      "torning": 8384,
      "Ġvide": 8385,
      "Ġkutilmagan": 8386,
      "Ġqurbon": 8387,
      "Ġdavrining": 8388,
      "yalar": 8389,
      "Ġerishgan": 8390,
      "Ġtexnologiyalari": 8391,
      "Ġoldidagi": 8392,
      "Ġtaro": 8393,
      "raka": 8394,
      "Ġdalil": 8395,
      "ismoniy": 8396,
      "Ġsuvlari": 8397,
      "Ġ............": 8398,
      "degan": 8399,
      "Ġfirma": 8400,
      "qulodda": 8401,
      "lyut": 8402,
      "Ġumurtqa": 8403,
      "zis": 8404,
      "ĠGra": 8405,
      "Ġxola": 8406,
      "ĠMing": 8407,
      "ĠToshkentda": 8408,
      "Ġstansiya": 8409,
      "Ġses": 8410,
      "Ġpeshona": 8411,
      "Ġhaqiqa": 8412,
      "Ġtartibli": 8413,
      "bosqich": 8414,
      "Ġnota": 8415,
      "Ġjonli": 8416,
      "olg": 8417,
      "Ġdono": 8418,
      "Ġmumkinki": 8419,
      "libdi": 8420,
      "Ġteran": 8421,
      "Ġzaharli": 8422,
      "sev": 8423,
      "Ġnatijalar": 8424,
      "Ġvoyaga": 8425,
      "Ġbaravar": 8426,
      "Ġtortdi": 8427,
      "Ġfunksiyalar": 8428,
      "Kim": 8429,
      "Ġkesish": 8430,
      "Ġyupqa": 8431,
      "Ġtenglik": 8432,
      "Ġoqso": 8433,
      "Nega": 8434,
      "Ġyarmi": 8435,
      "Ġpayqa": 8436,
      "Ġberaman": 8437,
      "Ġtayan": 8438,
      "yotib": 8439,
      "qituvchining": 8440,
      "Ġyuboradi": 8441,
      "ratu": 8442,
      "Ġqip": 8443,
      "Ġshahzoda": 8444,
      "Ġfakul": 8445,
      "Ġaza": 8446,
      "Ġhij": 8447,
      "Ġsezgi": 8448,
      "xshagan": 8449,
      "lament": 8450,
      "Ġ98": 8451,
      "Ġtarbiyaviy": 8452,
      "Se": 8453,
      "Ġyangicha": 8454,
      "Ġkonstruk": 8455,
      "ganing": 8456,
      "des": 8457,
      "Ġdunyoqara": 8458,
      "zgacha": 8459,
      "yid": 8460,
      "Ġahamiyatini": 8461,
      "Ġbiro": 8462,
      "deydi": 8463,
      "Ġnov": 8464,
      "Ġsutka": 8465,
      "Ġallaqachon": 8466,
      "Ġpoyde": 8467,
      "tariya": 8468,
      "ĠOdamlar": 8469,
      "Ġehtiro": 8470,
      "ĠPoli": 8471,
      "zol": 8472,
      "zicha": 8473,
      "ishiy": 8474,
      "hin": 8475,
      "rinni": 8476,
      "Ġchastota": 8477,
      "Ġqolip": 8478,
      "==": 8479,
      "Ġgav": 8480,
      "ĠTang": 8481,
      "Ġqiza": 8482,
      "ĠVer": 8483,
      "ĠAS": 8484,
      "Ġtul": 8485,
      "ĠĠĠĠĠĠĠĠĠĠĠĠĠĠ": 8486,
      "qis": 8487,
      "vra": 8488,
      "gum": 8489,
      "Ġ1993": 8490,
      "jaligida": 8491,
      "Ġ81": 8492,
      "Ġshakllanadi": 8493,
      "Ġagrega": 8494,
      "diradi": 8495,
      "Ġxarid": 8496,
      "Ġ79": 8497,
      "Ġxlorid": 8498,
      "gut": 8499,
      "Ġtomonlari": 8500,
      "ĠBil": 8501,
      "Ġdx": 8502,
      "Ġspetsi": 8503,
      "stim": 8504,
      "xiy": 8505,
      "Ro": 8506,
      "ĠRusta": 8507,
      "Ġkattaligi": 8508,
      "vil": 8509,
      "lchami": 8510,
      "fos": 8511,
      "Ġtannar": 8512,
      "ĠAniq": 8513,
      "rtaga": 8514,
      "Ġtopishi": 8515,
      "Ġemo": 8516,
      "Ġmutlaq": 8517,
      "uda": 8518,
      "ĠIssiq": 8519,
      "Ġrivojlanib": 8520,
      "Ġshish": 8521,
      "Ġfuqarolarning": 8522,
      "ddan": 8523,
      "tes": 8524,
      "Ġasoslanadi": 8525,
      "rimni": 8526,
      "ĠBiror": 8527,
      "rinbo": 8528,
      "zimiz": 8529,
      "ĠYechish": 8530,
      "Ġzamburug": 8531,
      "Ġilova": 8532,
      "Ġproble": 8533,
      "Ġsusa": 8534,
      "ĠEs": 8535,
      "ĠKA": 8536,
      "Ġito": 8537,
      "Ġspi": 8538,
      "Ġpir": 8539,
      "mikin": 8540,
      "Ġendo": 8541,
      "Ġuzum": 8542,
      "Ġafsus": 8543,
      "ĠTajriba": 8544,
      "rilar": 8545,
      "ĠAa": 8546,
      "raqa": 8547,
      "Ġtushishi": 8548,
      "Ġtuzum": 8549,
      "Ġxalos": 8550,
      "toshka": 8551,
      "Ġhadis": 8552,
      "Ġmanzil": 8553,
      "Ġtayyorlashda": 8554,
      "Ġsxema": 8555,
      "tirmoq": 8556,
      "Ġmarotaba": 8557,
      "ĠÙ": 8558,
      "Ġkoordinata": 8559,
      "maki": 8560,
      "Ġajdod": 8561,
      "Ġunsur": 8562,
      "Ġvitamin": 8563,
      "Ġyetkazish": 8564,
      "Ġtamoyillari": 8565,
      "Ġcheklangan": 8566,
      "ĠâĢĺ": 8567,
      "chno": 8568,
      "Ġochdi": 8569,
      "Ġpolvon": 8570,
      "Ġistiqlol": 8571,
      "ĠSirdaryo": 8572,
      "Ġqisqacha": 8573,
      "Ġborilgan": 8574,
      "Ġmoslama": 8575,
      "Ġpos": 8576,
      "ah": 8577,
      "ĠÂ«Â«": 8578,
      "Ġzaho": 8579,
      "ymiz": 8580,
      "shaqqat": 8581,
      "Ġergash": 8582,
      "up": 8583,
      "Ġxasta": 8584,
      "Ġdarak": 8585,
      "Ġayla": 8586,
      "mulk": 8587,
      "rmay": 8588,
      "Ġxotirjam": 8589,
      "fida": 8590,
      "ht": 8591,
      "vom": 8592,
      "Ġmehnatga": 8593,
      "Ġchiqardi": 8594,
      "Ġdeformatsiya": 8595,
      "Ġhind": 8596,
      "aktiv": 8597,
      "shig": 8598,
      "Ġaqli": 8599,
      "qozon": 8600,
      "MI": 8601,
      "yuz": 8602,
      "Ġyop": 8603,
      "ĠSohibqiron": 8604,
      "Ġtarkibini": 8605,
      "ritaniya": 8606,
      "Ġth": 8607,
      "Ġmenej": 8608,
      "rinishga": 8609,
      "tarilib": 8610,
      "Ġ125": 8611,
      "Ġkifoya": 8612,
      "ĠAgarda": 8613,
      "qishi": 8614,
      "Ġishlatilgan": 8615,
      "Ġishlagan": 8616,
      "hamat": 8617,
      "Ġbulut": 8618,
      "Ġyashar": 8619,
      "Ġtava": 8620,
      "Ġtenglamalar": 8621,
      "jay": 8622,
      "Ġharakatga": 8623,
      "Ġegallash": 8624,
      "hotki": 8625,
      "ĠER": 8626,
      "ĠMisr": 8627,
      "tural": 8628,
      "lsalar": 8629,
      "Ġdasturxon": 8630,
      "oyoq": 8631,
      "Ġolmadi": 8632,
      "yÅĪ": 8633,
      "Ġ(âĢĶ": 8634,
      "Ġmahsulotlarini": 8635,
      "rifiy": 8636,
      "tikasi": 8637,
      "Ġjinsli": 8638,
      "tora": 8639,
      "nishi": 8640,
      "Ġsharoiti": 8641,
      "Ġnim": 8642,
      "Ġtilshunos": 8643,
      "zatsii": 8644,
      "Ġjihoz": 8645,
      "ĠYuk": 8646,
      "Ġstud": 8647,
      "Ġtasviri": 8648,
      "Ġyaratdi": 8649,
      "yus": 8650,
      "Ġaloqalar": 8651,
      "mitasi": 8652,
      "com": 8653,
      "Ġkuydi": 8654,
      "Ġpropor": 8655,
      "Ġfoydalanadi": 8656,
      "120": 8657,
      "Ġrivojlantirishga": 8658,
      "Ġhazil": 8659,
      "uquq": 8660,
      "Ġbezovta": 8661,
      "Ġchiqamiz": 8662,
      "Ġrahba": 8663,
      "Ġchem": 8664,
      "urg": 8665,
      "mot": 8666,
      "Ġmoddalarni": 8667,
      "Ġtelevi": 8668,
      "jum": 8669,
      "Ġminnat": 8670,
      "jin": 8671,
      "Ġmartaba": 8672,
      "dlari": 8673,
      "Ġsuvo": 8674,
      "Ġtengsiz": 8675,
      "lumotlari": 8676,
      "jj": 8677,
      "ĠSI": 8678,
      "laymon": 8679,
      "obra": 8680,
      "Ġsamimiy": 8681,
      "Ġmutafakki": 8682,
      "Ġqoni": 8683,
      "Ġohang": 8684,
      "Ġmodul": 8685,
      "yani": 8686,
      "Ġliniya": 8687,
      "ĠSoliq": 8688,
      "omi": 8689,
      "Ġpichoq": 8690,
      "tadilar": 8691,
      "Ġblok": 8692,
      "tas": 8693,
      "Ġfut": 8694,
      "Ġsuku": 8695,
      "mikan": 8696,
      "Ġzimmasiga": 8697,
      "Ġyiqi": 8698,
      "Ġmisra": 8699,
      "Ġalgorit": 8700,
      "Ġyuksa": 8701,
      "Ġobo": 8702,
      "ĠMikro": 8703,
      "!.": 8704,
      "Ġqonunlari": 8705,
      "chiligida": 8706,
      "Ġbuncha": 8707,
      "YO": 8708,
      "uber": 8709,
      "Ġyovuz": 8710,
      "Ġsoot": 8711,
      "Ġnoyob": 8712,
      "Ġtum": 8713,
      "atvor": 8714,
      "ĠCo": 8715,
      "yotlar": 8716,
      "ĠHosil": 8717,
      "Ġhalol": 8718,
      "Ġprim": 8719,
      "Ġbularning": 8720,
      "Ġshoirning": 8721,
      "taktik": 8722,
      "LIGI": 8723,
      "yiha": 8724,
      "terat": 8725,
      "ngida": 8726,
      "Ġholida": 8727,
      "Ġtashish": 8728,
      "Ġ91": 8729,
      "ĠYuz": 8730,
      "Ġabso": 8731,
      "Ġmamlakatning": 8732,
      "ĠTadqiqot": 8733,
      "Ġquvva": 8734,
      "Ġtizza": 8735,
      "ĠZe": 8736,
      "Ġmast": 8737,
      "Ġotno": 8738,
      "Ġteatr": 8739,
      "zR": 8740,
      "Ġxislat": 8741,
      "lchamlari": 8742,
      "Ġlan": 8743,
      "Ġ180": 8744,
      "Ġglobal": 8745,
      "Ġmassh": 8746,
      "Ġishda": 8747,
      "Ġxususiyatlar": 8748,
      "lomat": 8749,
      "ĠâĢĿ": 8750,
      "Ġbulg": 8751,
      "arib": 8752,
      "ĠTashki": 8753,
      "Ġyoy": 8754,
      "Ġkonfer": 8755,
      "Ġxir": 8756,
      "pchiligi": 8757,
      "Ġboshqaruvchi": 8758,
      "Ġholatni": 8759,
      "ĠPu": 8760,
      "Ġtagida": 8761,
      "Ġkeltiriladi": 8762,
      "Ġtalablari": 8763,
      "Ġtaqdiri": 8764,
      "Ġosnov": 8765,
      "tirsa": 8766,
      "Ġhunarmand": 8767,
      "Ġqolmay": 8768,
      "stov": 8769,
      "Ġtiniq": 8770,
      "Ġizlab": 8771,
      "entgen": 8772,
      "ĠTek": 8773,
      "yxati": 8774,
      "Ġtariqasida": 8775,
      "Ġsind": 8776,
      "Ġrezul": 8777,
      "Ġboshdan": 8778,
      "soz": 8779,
      "Ġtr": 8780,
      "dog": 8781,
      "chilikni": 8782,
      "Ġshunchaki": 8783,
      "Ġchida": 8784,
      "ĠAva": 8785,
      "Ġsoxta": 8786,
      "Ġkorxonaning": 8787,
      "kidlab": 8788,
      "qing": 8789,
      "Ġ105": 8790,
      "Ġsababdan": 8791,
      "Ġdonish": 8792,
      "dolat": 8793,
      "dofaa": 8794,
      "Ġold": 8795,
      "Ġqadriyatlar": 8796,
      "Ġkiyib": 8797,
      "pli": 8798,
      "Ġdaftar": 8799,
      "Ġdavomiy": 8800,
      "ĠTug": 8801,
      "Ġ88": 8802,
      "Ġqolmadi": 8803,
      "Ġkapitali": 8804,
      "tropo": 8805,
      "Ġqilinib": 8806,
      "Ġtobe": 8807,
      "plar": 8808,
      "Ġyol": 8809,
      "tallar": 8810,
      "tkazadi": 8811,
      "redit": 8812,
      "Ġbajarishga": 8813,
      "Ġayir": 8814,
      "rishda": 8815,
      "yl": 8816,
      "ĠĠĠĠĠĠĠĠĠĠĠĠĠĠĠ": 8817,
      "bili": 8818,
      "ĠBol": 8819,
      "rabo": 8820,
      "Ġnm": 8821,
      "Ġetishni": 8822,
      "MO": 8823,
      "kus": 8824,
      "lamo": 8825,
      "Ġnormativ": 8826,
      "ĠBag": 8827,
      "Ġce": 8828,
      "Ġkarto": 8829,
      "mita": 8830,
      "ĠIY": 8831,
      "fur": 8832,
      "tic": 8833,
      "Ġ87": 8834,
      "minot": 8835,
      "Ġyonib": 8836,
      "Ġachi": 8837,
      "ĠAK": 8838,
      "Ġvakili": 8839,
      "Ġqazib": 8840,
      "Ġeni": 8841,
      "Ġyuzida": 8842,
      "Ġhuk": 8843,
      "taroq": 8844,
      "Ġvas": 8845,
      "Ġsanoq": 8846,
      "rur": 8847,
      "llohu": 8848,
      "Ġxoti": 8849,
      "niqli": 8850,
      "ĠShaxs": 8851,
      "Ġoladilar": 8852,
      "Ġmustamlaka": 8853,
      "Ġqudratli": 8854,
      "rima": 8855,
      "Ġhisobida": 8856,
      "Ġanaliz": 8857,
      "Ġzavod": 8858,
      "ĠFun": 8859,
      "ĠImom": 8860,
      "tarilishi": 8861,
      "Ġfoi": 8862,
      "Ġorqasidan": 8863,
      "Ġmad": 8864,
      "Ġeksperim": 8865,
      "yingan": 8866,
      "Ġixtiyo": 8867,
      "ridi": 8868,
      "madim": 8869,
      "Ġ119": 8870,
      "ĠKul": 8871,
      "Ġtaqa": 8872,
      "nglim": 8873,
      "ullanuvchi": 8874,
      "ganicha": 8875,
      "shsha": 8876,
      "arog": 8877,
      "Ġgeneral": 8878,
      "Ġtashxi": 8879,
      "Ġqand": 8880,
      "Ġvositalarini": 8881,
      "stlari": 8882,
      "ind": 8883,
      "rilmagan": 8884,
      "Ġtaba": 8885,
      "kamol": 8886,
      "rux": 8887,
      "mim": 8888,
      "quvchilarni": 8889,
      "Ġtarang": 8890,
      "Ġyurishi": 8891,
      "ĠOxir": 8892,
      "Ġuchrab": 8893,
      "pdan": 8894,
      "Ġorganiz": 8895,
      "ĠTemir": 8896,
      "Ġkimdir": 8897,
      "vral": 8898,
      "jit": 8899,
      "misiz": 8900,
      "Ġshaklini": 8901,
      "ĠPedagogik": 8902,
      "atida": 8903,
      "ĠAsh": 8904,
      "Ġhid": 8905,
      "Ġdaraxtlar": 8906,
      "Ġresurslari": 8907,
      "107": 8908,
      "ĠAvval": 8909,
      "Ġjabr": 8910,
      "ĠBitta": 8911,
      "lua": 8912,
      "].": 8913,
      "art": 8914,
      "Ġmalakali": 8915,
      "payishi": 8916,
      "Ġhazm": 8917,
      "Ġfiltr": 8918,
      "Ġzahoti": 8919,
      "Ġsyu": 8920,
      "Ġaksini": 8921,
      "Ġtaxt": 8922,
      "ilishi": 8923,
      "Ġsina": 8924,
      "ĠMahsulot": 8925,
      "kishi": 8926,
      "Ġxavotir": 8927,
      "Ġkuchga": 8928,
      "Le": 8929,
      "hom": 8930,
      "Ġkarvon": 8931,
      "kana": 8932,
      "ĠFir": 8933,
      "Ġlari": 8934,
      "Ġnobud": 8935,
      "Ġasarlarini": 8936,
      "ĠToji": 8937,
      "Ġsayohat": 8938,
      "Ġalda": 8939,
      "fis": 8940,
      "Ġtilidagi": 8941,
      "ĠTarbiya": 8942,
      "??": 8943,
      "Ġichib": 8944,
      "Ġ86": 8945,
      "ĠUlarga": 8946,
      "Ġoe": 8947,
      "lid": 8948,
      "medov": 8949,
      "Ġuglevo": 8950,
      "Ġolimi": 8951,
      "Ġlekse": 8952,
      "qqiz": 8953,
      "chidan": 8954,
      "Ġdunyoni": 8955,
      "ĠYura": 8956,
      "Ġdahshatli": 8957,
      "Ġtaqiq": 8958,
      "Ġteb": 8959,
      "Ġ83": 8960,
      "Ġbeixtiyor": 8961,
      "Ġalif": 8962,
      "dorlari": 8963,
      "Ġkre": 8964,
      "Ġprofessional": 8965,
      "Ġnuqtaning": 8966,
      "sum": 8967,
      "ogen": 8968,
      "Ġsurib": 8969,
      "chqon": 8970,
      "ĠOH": 8971,
      "ĠĠĠĠĠĠĠĠĠĠčĊ": 8972,
      "Ġkelardi": 8973,
      "Ġmembra": 8974,
      "Ġtilidan": 8975,
      "Ġatal": 8976,
      "Ġqarashlari": 8977,
      "Ġtekshiruv": 8978,
      "shir": 8979,
      "Ġxususiyatlariga": 8980,
      "ĠOddiy": 8981,
      "Ġnaqsh": 8982,
      "Ġminimal": 8983,
      "Ġgarchi": 8984,
      "Ġochilgan": 8985,
      "Ġqolgani": 8986,
      "urasi": 8987,
      "ĠHoji": 8988,
      "Ġtafo": 8989,
      "dirlar": 8990,
      "Ġsarg": 8991,
      "matov": 8992,
      "Ġangi": 8993,
      "ĠBul": 8994,
      "Ġmoddaning": 8995,
      "Ġetishning": 8996,
      "Ġqarat": 8997,
      "Ġbashorat": 8998,
      "Ġetsa": 8999,
      "Ġsust": 9000,
      "Ġthat": 9001,
      "lchanadi": 9002,
      "gancha": 9003,
      "ĠJamo": 9004,
      "Ġyassi": 9005,
      "daniga": 9006,
      "Ġemasligi": 9007,
      "Ġyaxshilab": 9008,
      "Far": 9009,
      "Ġkitoblar": 9010,
      "Ġborki": 9011,
      "Ġtopshiriqlar": 9012,
      "Ġyalti": 9013,
      "imo": 9014,
      "Ġ~": 9015,
      "ĠRespublikasida": 9016,
      "Ġsodiq": 9017,
      "Ġalanga": 9018,
      "risti": 9019,
      "loid": 9020,
      "Ġpiro": 9021,
      "timol": 9022,
      "tirildi": 9023,
      "Ġzami": 9024,
      "Ġmoleku": 9025,
      "duktiv": 9026,
      "Ġbersa": 9027,
      "Ġee": 9028,
      "Ġqarshiligi": 9029,
      "tilsa": 9030,
      "Ġjarayoniga": 9031,
      "Ġdor": 9032,
      "kix": 9033,
      "rpa": 9034,
      "Â»-": 9035,
      "Ġyalang": 9036,
      "doshlari": 9037,
      "Ġkasalliklari": 9038,
      "Ham": 9039,
      "Ġodob": 9040,
      "Ġtajribasi": 9041,
      "ligicha": 9042,
      "Ġjanr": 9043,
      "tsiyalar": 9044,
      "Ġumri": 9045,
      "vut": 9046,
      "Ġyasash": 9047,
      "ĠQahhor": 9048,
      "Ġhasharo": 9049,
      "Ġobod": 9050,
      "plash": 9051,
      "Ġturizm": 9052,
      "ratlar": 9053,
      "rimo": 9054,
      "Ġyilga": 9055,
      "Ġmahsulotni": 9056,
      "Ġarzon": 9057,
      "Ġshubhasiz": 9058,
      "Ġdavriga": 9059,
      "Ġrejasi": 9060,
      "Ġtashkiloti": 9061,
      "Ġmamlakatlari": 9062,
      "lmaganda": 9063,
      "Ġmiqdordagi": 9064,
      "Ġkish": 9065,
      "Ġkerakligini": 9066,
      "Ġdiplo": 9067,
      "!!!": 9068,
      "ĠInternet": 9069,
      "Ġparva": 9070,
      "ĠNaq": 9071,
      "jayev": 9072,
      "ĠYO": 9073,
      "Ġlirik": 9074,
      "shey": 9075,
      "ens": 9076,
      "ĠAmudaryo": 9077,
      "ij": 9078,
      "Ġblan": 9079,
      "Ġyechimi": 9080,
      "Ġsayin": 9081,
      "Ġzab": 9082,
      "lishlari": 9083,
      "quvchilarga": 9084,
      "Ġmushkul": 9085,
      "MOQ": 9086,
      "ngizmi": 9087,
      "spo": 9088,
      "Ġlavozi": 9089,
      "Ġtuzatish": 9090,
      "kl": 9091,
      "boti": 9092,
      "Ġqalay": 9093,
      "hoya": 9094,
      "izo": 9095,
      "ĠAnvar": 9096,
      "Ġmakon": 9097,
      "rqib": 9098,
      "Ġqoidalar": 9099,
      "qnash": 9100,
      "TIR": 9101,
      "Ġklinik": 9102,
      "ĠZay": 9103,
      "sorb": 9104,
      "Ġ93": 9105,
      "trof": 9106,
      "Ġut": 9107,
      "ĠBritaniya": 9108,
      "Ġuniversiteti": 9109,
      "Ġohi": 9110,
      "Ġtranspor": 9111,
      "Ġsuyagi": 9112,
      "nizatsiya": 9113,
      "Ġsohibi": 9114,
      "ulo": 9115,
      "Ġdidak": 9116,
      "Ġichidan": 9117,
      "Ġqizning": 9118,
      "Ġnauch": 9119,
      "Ġkonkret": 9120,
      "Ġmateriali": 9121,
      "yka": 9122,
      "ĠSul": 9123,
      "Ġau": 9124,
      "dira": 9125,
      "Ġaksariyat": 9126,
      "Ġyetmagan": 9127,
      "Ġqilmoqda": 9128,
      "Ġelastik": 9129,
      "qizil": 9130,
      "Ġqaytdi": 9131,
      "Xa": 9132,
      "Ġmaqsadda": 9133,
      "Ġfalak": 9134,
      "Ġustoz": 9135,
      "rganilgan": 9136,
      "yax": 9137,
      "vish": 9138,
      "Ġtomi": 9139,
      "niyem": 9140,
      "Ġshohi": 9141,
      "murod": 9142,
      "Ġozgina": 9143,
      "Ġshimoliy": 9144,
      "Ġyurdi": 9145,
      "Ġnimadan": 9146,
      "ngizdan": 9147,
      "Ġï¿½ï¿½ï¿½ï¿½ï¿½ï¿½ï¿½ï¿½ï¿½ï¿½ï¿½ï¿½ï¿½ï¿½ï¿½ï¿½ï¿½ï¿½ï¿½ï¿½ï¿½ï¿½ï¿½ï¿½ï¿½ï¿½ï¿½ï¿½ï¿½ï¿½ï¿½ï¿½ï¿½ï¿½ï¿½ï¿½ï¿½ï¿½ï¿½ï¿½ï¿½ï¿½ï¿½ï¿½ï¿½ï¿½ï¿½ï¿½": 9148,
      "Ġshaharlar": 9149,
      "Ġhuquqini": 9150,
      "Ġsme": 9151,
      "ĠMuallif": 9152,
      "dol": 9153,
      "Ġanchagina": 9154,
      "Ġdaxl": 9155,
      "ayrat": 9156,
      "Ġ89": 9157,
      "ener": 9158,
      "Ġmirzo": 9159,
      "Ġabadiy": 9160,
      "Ġsoniga": 9161,
      "ĠElektr": 9162,
      "ĠAleksan": 9163,
      "sirchan": 9164,
      "Ġpil": 9165,
      "toro": 9166,
      "ĠNaza": 9167,
      "Ġiqtisod": 9168,
      ")=": 9169,
      "atuvchi": 9170,
      "Ġyura": 9171,
      "Ġyechim": 9172,
      "Ġelementi": 9173,
      "Ġmiqdoriga": 9174,
      "baxsh": 9175,
      "Ġqama": 9176,
      "Ġjanubiy": 9177,
      "rishdi": 9178,
      "ratsiyasi": 9179,
      "ugurt": 9180,
      "Ġyiroq": 9181,
      "ĸł": 9182,
      "Ġyozuvi": 9183,
      "Ġtubdan": 9184,
      "Ġtasdiqlangan": 9185,
      "kma": 9186,
      "Ġnuri": 9187,
      "qituvchilar": 9188,
      "Ġamino": 9189,
      "Ġley": 9190,
      "ĠXal": 9191,
      "Ġkarbonat": 9192,
      "ĠĠĠĠĠĠĠĠĠĠĠĠĠĠĠĠĠĠĠĠĠĠĠĠĠĠĠĠĠĠĠĠĠĠĠĠĠĠĠĠĠĠĠĠĠĠĠĠ": 9193,
      "Ġtexnikasi": 9194,
      "Ġmunosabatlarini": 9195,
      "Ġetmoqda": 9196,
      "Ġdinamik": 9197,
      "ZBEKISTON": 9198,
      "ĠâĢĶâĢĶâĢĶ": 9199,
      "xor": 9200,
      "bidan": 9201,
      "Ġaralashma": 9202,
      "dikulyar": 9203,
      "zgarishiga": 9204,
      "pr": 9205,
      "chasiga": 9206,
      "tuyg": 9207,
      "ĠNav": 9208,
      "Ġbosqichlari": 9209,
      "Ġnuqtadan": 9210,
      "tsent": 9211,
      "Ġ140": 9212,
      "ĠQush": 9213,
      "Ġ130": 9214,
      "Ġmlrd": 9215,
      "Ġteva": 9216,
      "Ġmehna": 9217,
      "ĠSharqiy": 9218,
      "Ġxira": 9219,
      "ĠAj": 9220,
      "Ġtenglamaning": 9221,
      "kaza": 9222,
      "Ġilmi": 9223,
      "hnat": 9224,
      "ĠTAR": 9225,
      "Ġjurnal": 9226,
      "Ġizlanish": 9227,
      "Ġjannat": 9228,
      "gotov": 9229,
      "minlangan": 9230,
      "dy": 9231,
      "ĠPsixo": 9232,
      "Ġshartlari": 9233,
      "ĠJismoniy": 9234,
      "Ġashula": 9235,
      "ĠXat": 9236,
      "Ġqalti": 9237,
      "Ġrisola": 9238,
      "Ġyoqilg": 9239,
      "sing": 9240,
      "Ġtexnologiyalar": 9241,
      "janob": 9242,
      "ĠPan": 9243,
      "ĠSamarqan": 9244,
      "chma": 9245,
      "Ġfunk": 9246,
      "Ġlam": 9247,
      "oti": 9248,
      "ysu": 9249,
      "Ġsolishtirma": 9250,
      "Ġmal": 9251,
      "ĠBah": 9252,
      "Ġmehnati": 9253,
      "zanda": 9254,
      "ĠFitrat": 9255,
      "llanilishi": 9256,
      "Ġkelishini": 9257,
      "ĠOL": 9258,
      "Ġmantiq": 9259,
      "Ġjav": 9260,
      "Ġ220": 9261,
      "Ġqoq": 9262,
      "Ġyaz": 9263,
      "Ġfolk": 9264,
      "Ġoh": 9265,
      "Ġsehr": 9266,
      "ĠQoraqalpog": 9267,
      "Ġfoydalanishni": 9268,
      "Ġintellektual": 9269,
      "Ġicha": 9270,
      "ĠMustaqillik": 9271,
      "ĠOsh": 9272,
      "minoti": 9273,
      "ganimiz": 9274,
      "Ġraqami": 9275,
      "Ġvujudi": 9276,
      "Ġqilini": 9277,
      "Ġxaridor": 9278,
      "tariladi": 9279,
      "ngir": 9280,
      "Ġkav": 9281,
      "Ġava": 9282,
      "vant": 9283,
      "yig": 9284,
      "inson": 9285,
      "uliyat": 9286,
      "tganda": 9287,
      "xtadi": 9288,
      "tishini": 9289,
      "Ġqiziqar": 9290,
      "ĠChu": 9291,
      "INCHI": 9292,
      "Ġmumtoz": 9293,
      "Ġklassik": 9294,
      "gandi": 9295,
      "ĠKech": 9296,
      "qoida": 9297,
      "Ġkengligi": 9298,
      "dey": 9299,
      "Ġbosqin": 9300,
      "Ġunli": 9301,
      "Ġbyudje": 9302,
      "Ġlin": 9303,
      "Ġqiro": 9304,
      "Ġtagiga": 9305,
      "Ġqovush": 9306,
      "XI": 9307,
      "Ġtezkor": 9308,
      "Ġistalgan": 9309,
      "Ġorqasiga": 9310,
[...]
